</s>	0
<unk>	0
s	-3.2903
,	-3.51311
▁the	-3.67497
▁de	-3.73581
.	-3.8036
'	-3.97635
▁of	-4.19543
▁la	-4.42319
▁	-4.54509
▁a	-4.61324
▁to	-4.65326
▁l	-4.65654
▁and	-4.67155
▁et	-4.7146
▁in	-4.78438
e	-4.81319
▁d	-4.82985
▁à	-4.93372
▁des	-4.93882
▁le	-4.99401
▁les	-5.02344
▁en	-5.22029
-	-5.23797
▁du	-5.33461
▁(	-5.49028
▁is	-5.5004
r	-5.52799
ing	-5.59315
▁for	-5.61934
▁un	-5.63811
es	-5.69582
▁dans	-5.71958
ed	-5.73362
▁par	-5.74498
▁on	-5.77926
▁une	-5.81309
▁que	-5.82374
d	-5.82725
er	-5.86217
▁pour	-5.86502
)	-5.86544
▁The	-5.86876
▁that	-5.88606
▁est	-5.90352
▁be	-5.9988
▁sur	-6.00526
▁au	-6.03717
▁by	-6.04451
▁with	-6.11865
’	-6.17545
a	-6.19465
▁qui	-6.2005
ment	-6.22067
al	-6.27106
ly	-6.29197
t	-6.33199
▁as	-6.37036
▁are	-6.37283
é	-6.38006
▁which	-6.43683
▁an	-6.44046
▁or	-6.45096
▁s	-6.461
un	-6.47278
:	-6.50383
y	-6.51712
▁ou	-6.53043
▁at	-6.53678
▁ce	-6.54775
;	-6.55279
/	-6.60675
ation	-6.61206
in	-6.61337
n	-6.61871
c	-6.6316
l	-6.66395
▁Le	-6.6653
▁sont	-6.66725
▁aux	-6.67605
▁this	-6.67999
▁it	-6.70273
▁re	-6.70454
▁C	-6.70781
i	-6.73113
▁1	-6.73627
il	-6.75323
▁from	-6.76274
g	-6.76498
▁La	-6.77189
re	-6.7761
▁qu	-6.79378
A	-6.79623
▁not	-6.79756
une	-6.80235
▁L	-6.80361
▁se	-6.80816
▁A	-6.81341
▁plus	-6.82294
▁In	-6.82692
ant	-6.83231
▁pas	-6.84658
or	-6.86873
▁M	-6.88242
m	-6.88725
o	-6.89347
b	-6.9035
▁n	-6.90858
▁Commission	-6.93389
▁S	-6.93727
p	-6.94094
nt	-6.94893
▁avec	-6.95616
ent	-6.96001
▁I	-6.96393
▁ne	-6.98258
▁2	-6.99071
est	-6.99278
u	-7.00455
on	-7.00646
▁have	-7.03015
▁être	-7.03026
C	-7.03376
▁has	-7.04875
▁c	-7.05089
▁Les	-7.09491
en	-7.11048
▁p	-7.11465
▁T	-7.14598
ur	-7.14657
▁P	-7.14845
age	-7.15424
▁was	-7.15575
).	-7.15894
▁ont	-7.15956
▁its	-7.16327
▁été	-7.17205
▁will	-7.19806
ar	-7.20343
S	-7.21078
▁entre	-7.21849
f	-7.22651
▁B	-7.23582
le	-7.24277
▁all	-7.2463
▁il	-7.26041
▁also	-7.26793
▁3	-7.30823
it	-7.31674
▁can	-7.32424
▁D	-7.3284
ée	-7.33246
P	-7.33629
th	-7.34884
▁b	-7.35371
▁ré	-7.35735
▁dé	-7.36138
▁cette	-7.3742
▁ces	-7.39466
▁10	-7.39495
▁sa	-7.39595
▁one	-7.3987
▁other	-7.39888
te	-7.4137
▁example	-7.41451
an	-7.41865
ol	-7.4209
▁peut	-7.42095
­	-7.42204
),	-7.42222
▁their	-7.43045
ci	-7.43519
▁F	-7.43564
▁part	-7.44638
h	-7.4504
ion	-7.45042
▁non	-7.45587
T	-7.45606
able	-7.4564
▁-	-7.45823
▁pays	-7.46231
▁between	-7.4627
D	-7.46324
▁Il	-7.4653
ement	-7.46681
▁R	-7.4736
▁En	-7.4847
és	-7.48563
4	-7.48817
▁been	-7.49047
▁E	-7.49195
2	-7.49586
▁con	-7.49623
at	-7.49656
ic	-7.50243
▁4	-7.50773
O	-7.51802
ra	-7.53043
1	-7.54146
▁g	-7.54734
▁we	-7.54796
▁European	-7.5654
▁such	-7.56617
▁deux	-7.56881
B	-7.57341
3	-7.58078
▁invention	-7.59031
▁6	-7.60399
k	-7.60654
ité	-7.61123
ter	-7.61423
▁leur	-7.61506
▁so	-7.61708
▁5	-7.61801
▁comme	-7.62204
▁fait	-7.6238
▁This	-7.62585
▁It	-7.62602
L	-7.62992
F	-7.63535
M	-7.6363
▁son	-7.6426
▁position	-7.64416
▁co	-7.65007
▁f	-7.65163
E	-7.65395
ive	-7.65798
ance	-7.65981
▁more	-7.66279
▁rapport	-7.66493
us	-7.67049
▁should	-7.67098
▁G	-7.6787
▁support	-7.67918
R	-7.68208
▁nous	-7.68397
▁may	-7.68938
I	-7.69325
▁8	-7.69419
▁two	-7.69818
▁first	-7.70154
ées	-7.70168
▁20	-7.70772
▁pro	-7.71392
li	-7.72609
▁également	-7.72976
▁Nations	-7.73384
ity	-7.73429
eur	-7.74394
ou	-7.74487
▁"	-7.74488
▁possible	-7.74683
▁ainsi	-7.75151
ique	-7.75326
um	-7.75921
▁under	-7.7616
ate	-7.76527
▁cas	-7.76784
▁inter	-7.7694
id	-7.7714
▁but	-7.77153
ir	-7.77305
▁selon	-7.77652
▁out	-7.77901
z	-7.77947
▁into	-7.78002
▁H	-7.78575
5	-7.79049
▁States	-7.79689
▁these	-7.79826
▁7	-7.80373
N	-7.8062
▁V	-7.80823
et	-7.80851
▁h	-7.81609
"	-7.81768
▁said	-7.81977
▁figure	-7.82448
▁dis	-7.82909
▁point	-7.82931
▁per	-7.82964
6	-7.83114
v	-7.83442
▁développement	-7.83554
au	-7.84457
ro	-7.84495
G	-7.84979
▁would	-7.85016
▁second	-7.85425
▁Dans	-7.85451
▁were	-7.8547
ad	-7.85518
▁12	-7.85825
▁N	-7.85894
▁international	-7.87025
▁même	-7.87223
isation	-7.87639
▁sous	-7.87702
▁national	-7.87804
▁time	-7.8832
▁États	-7.88438
▁r	-7.89089
▁programme	-7.89768
▁services	-7.90431
ated	-7.90483
ne	-7.91412
de	-7.91425
▁Conseil	-7.9144
▁On	-7.91504
▁si	-7.9155
▁partie	-7.91856
im	-7.91919
▁«	-7.924
▁travail	-7.92868
▁pré	-7.93595
am	-7.93662
▁means	-7.93815
is	-7.93835
▁FIG	-7.93889
▁e	-7.94147
la	-7.94231
▁Council	-7.94606
ul	-7.94699
▁9	-7.95502
▁than	-7.95627
▁work	-7.9572
▁no	-7.96143
▁é	-7.96267
ac	-7.96498
▁countries	-7.96683
▁De	-7.97041
▁system	-7.97079
aux	-7.97877
ine	-7.97937
▁moins	-7.98119
▁membres	-7.98153
ut	-7.98175
▁type	-7.98547
▁m	-7.98697
▁mais	-7.98747
▁new	-7.9924
elle	-7.99458
ie	-7.99784
▁being	-8.00415
invention	-8.00813
▁Member	-8.00857
me	-8.01182
▁development	-8.01385
ex	-8.01536
▁européenne	-8.01661
ce	-8.01676
ait	-8.01972
el	-8.02118
▁signal	-8.02242
▁base	-8.02323
▁st	-8.02415
▁United	-8.02511
lo	-8.02936
▁surface	-8.0297
w	-8.03125
▁do	-8.03166
ous	-8.03339
▁11	-8.0372
▁mise	-8.04292
▁information	-8.04427
▁place	-8.04874
▁order	-8.0555
H	-8.06152
▁dont	-8.06402
ers	-8.06502
ag	-8.07348
▁important	-8.07721
▁comp	-8.07803
op	-8.08041
ri	-8.08358
as	-8.08673
▁each	-8.08813
V	-8.08924
▁made	-8.09422
▁y	-8.09919
▁had	-8.10321
▁O	-8.10864
▁end	-8.11091
▁use	-8.11163
8	-8.11277
▁up	-8.1161
▁protection	-8.11741
ign	-8.12164
▁contre	-8.12243
▁système	-8.12298
ons	-8.12732
▁tout	-8.12783
▁according	-8.12789
che	-8.12853
°	-8.12949
▁report	-8.13009
x	-8.13494
ve	-8.13583
▁15	-8.14096
▁%	-8.14204
▁14	-8.14209
▁conditions	-8.14345
?	-8.14586
▁any	-8.14645
▁notamment	-8.14919
▁they	-8.15197
à	-8.15262
▁device	-8.15329
▁public	-8.1538
▁bien	-8.15602
vi	-8.15804
▁Committee	-8.16424
▁particular	-8.1649
▁plan	-8.16497
to	-8.16851
▁social	-8.17056
▁used	-8.17136
▁19	-8.17312
▁—	-8.17584
▁Mr	-8.17979
▁t	-8.18071
▁droits	-8.18374
▁niveau	-8.18527
▁dispositif	-8.18627
▁respect	-8.18937
▁face	-8.19022
▁ma	-8.19227
▁must	-8.19355
▁13	-8.19396
▁through	-8.19417
té	-8.19516
▁there	-8.19594
▁aussi	-8.1972
▁“	-8.19962
action	-8.20236
▁when	-8.20317
▁faire	-8.20413
▁soit	-8.20541
tre	-8.20597
▁tous	-8.21009
▁over	-8.21289
▁situation	-8.21409
▁30	-8.21475
ary	-8.21527
▁question	-8.21536
▁process	-8.21656
▁matière	-8.21784
▁present	-8.21869
▁circuit	-8.22098
7	-8.22104
▁only	-8.22436
▁pre	-8.22574
ations	-8.23217
ating	-8.23789
act	-8.23998
par	-8.24741
▁number	-8.24811
▁cadre	-8.24905
▁leurs	-8.24974
▁ex	-8.25077
▁K	-8.25417
▁ses	-8.25426
▁EU	-8.25445
▁sub	-8.25532
ré	-8.25548
▁sécurité	-8.25939
▁mesures	-8.26457
▁Re	-8.26531
▁présente	-8.26734
▁:	-8.26847
▁We	-8.27275
ence	-8.27356
if	-8.27625
▁phase	-8.2823
9	-8.28429
di	-8.29225
▁about	-8.29251
▁form	-8.29417
ab	-8.2943
ure	-8.29568
con	-8.29906
co	-8.30001
que	-8.30043
U	-8.30135
0	-8.30363
▁1,	-8.30394
ist	-8.30424
▁No	-8.30491
ia	-8.30625
▁those	-8.30919
▁16	-8.31219
”	-8.31222
▁droit	-8.31247
▁least	-8.31253
▁peuvent	-8.31369
autres	-8.32271
▁politique	-8.32315
▁transport	-8.32591
▁w	-8.32621
qu	-8.32752
▁compte	-8.32946
▁case	-8.33307
▁manière	-8.33424
▁structure	-8.33623
▁première	-8.33764
st	-8.33959
min	-8.34031
▁doit	-8.34035
▁forme	-8.3433
▁well	-8.34456
▁contact	-8.34584
▁nombre	-8.34882
ot	-8.34945
▁Convention	-8.3523
▁J	-8.35516
oc	-8.35674
▁same	-8.35778
▁données	-8.35999
▁vue	-8.36034
lu	-8.36115
▁W	-8.36307
▁sans	-8.37032
ge	-8.37057
▁certain	-8.37182
▁premier	-8.37266
ch	-8.37267
▁programmes	-8.37473
▁if	-8.375
os	-8.37824
(	-8.3807
lic	-8.38118
▁session	-8.3826
▁moyens	-8.38266
ill	-8.38323
▁control	-8.38892
mo	-8.38896
▁je	-8.38927
▁me	-8.38933
è	-8.3921
▁solution	-8.39342
▁Comité	-8.39349
▁level	-8.39429
▁j	-8.39451
ph	-8.39701
ry	-8.39923
per	-8.40114
▁car	-8.40724
▁market	-8.40738
▁you	-8.40752
▁donc	-8.40829
▁Un	-8.4092
av	-8.41033
▁réalisation	-8.41106
▁18	-8.41802
▁afin	-8.419
▁autres	-8.42113
les	-8.42149
▁he	-8.42276
▁Ce	-8.42315
▁particulier	-8.42969
ta	-8.43231
▁data	-8.43321
▁production	-8.44347
▁view	-8.44387
▁Par	-8.4445
ite	-8.44681
tic	-8.45933
▁où	-8.4604
Union	-8.46304
▁très	-8.46323
▁demande	-8.46609
aire	-8.4666
▁mode	-8.46686
end	-8.46767
▁where	-8.46884
▁different	-8.46968
▁v	-8.47031
▁Community	-8.47477
▁cours	-8.47889
▁chaque	-8.48019
▁take	-8.48177
▁need	-8.48226
▁formation	-8.4829
▁action	-8.48306
▁people	-8.4836
▁rights	-8.48364
▁Europe	-8.4838
lement	-8.48394
qui	-8.48417
▁who	-8.48539
▁ci	-8.4865
eau	-8.48711
▁étant	-8.48834
▁projet	-8.48978
▁Cette	-8.48994
article	-8.49013
▁section	-8.4924
▁Pour	-8.49384
▁di	-8.49465
▁some	-8.49657
ty	-8.49718
▁direction	-8.49742
▁local	-8.49898
▁efforts	-8.49971
▁fin	-8.5068
»	-8.50734
▁permet	-8.50749
▁high	-8.50871
▁provided	-8.51084
▁during	-8.51204
▁mesure	-8.51306
▁including	-8.51628
▁very	-8.51695
▁zone	-8.517
eurs	-8.51717
▁way	-8.51827
ization	-8.51863
▁trans	-8.51864
▁vers	-8.51934
▁against	-8.51984
UE	-8.52334
▁State	-8.52873
▁large	-8.53629
▁economic	-8.53651
▁temps	-8.53903
va	-8.5415
▁long	-8.54347
▁fonction	-8.54651
tain	-8.54653
up	-8.54725
▁parties	-8.54778
▁within	-8.54913
▁law	-8.54973
▁set	-8.55264
▁then	-8.55417
▁method	-8.55491
▁As	-8.555
▁human	-8.55503
tion	-8.55542
ig	-8.55596
▁To	-8.55641
▁cet	-8.55679
▁policy	-8.55705
▁Nous	-8.55955
▁fl	-8.56009
▁autre	-8.56024
▁22	-8.56036
▁measures	-8.56104
ère	-8.5612
▁concerne	-8.56343
form	-8.56351
▁»	-8.56947
pro	-8.57331
▁For	-8.57373
▁elle	-8.57949
ti	-8.58002
▁our	-8.58253
ét	-8.58267
▁général	-8.58324
▁Je	-8.5836
▁po	-8.58362
gu	-8.58769
▁total	-8.5878
and	-8.59038
▁could	-8.59056
▁charge	-8.59072
▁regard	-8.59257
▁contrôle	-8.59535
▁k	-8.59712
▁provide	-8.59825
ide	-8.59831
▁population	-8.59967
ai	-8.60544
▁deuxième	-8.60776
▁Union	-8.608
ib	-8.6088
▁Unies	-8.60929
ting	-8.6101
ants	-8.61082
ator	-8.61287
one	-8.61439
▁traitement	-8.61531
▁composition	-8.61775
ap	-8.61862
▁économique	-8.61881
▁21	-8.61907
▁encore	-8.62127
cl	-8.62148
▁micro	-8.62219
▁following	-8.62357
▁imp	-8.62834
ud	-8.62876
▁tel	-8.62919
▁document	-8.62974
▁femmes	-8.63058
▁façon	-8.63229
▁européen	-8.6362
tant	-8.63683
eux	-8.6371
▁jour	-8.63736
▁concernant	-8.63746
▁procédé	-8.63868
ES	-8.64165
autre	-8.64533
ér	-8.6472
▁25	-8.65197
▁24	-8.65456
ip	-8.65547
▁17	-8.65808
▁groupe	-8.6585
▁vis	-8.66003
▁make	-8.66059
▁budget	-8.66476
▁Con	-8.66874
▁further	-8.66929
▁activités	-8.66943
ling	-8.67153
pos	-8.67379
pe	-8.67538
ted	-8.6754
▁portion	-8.67601
▁lors	-8.67636
▁directive	-8.67897
▁embodiment	-8.67957
▁marché	-8.68016
▁poly	-8.68039
▁application	-8.68149
ma	-8.68262
▁i	-8.68397
▁plusieurs	-8.68408
homme	-8.68523
sion	-8.68612
▁continue	-8.6874
▁main	-8.68813
information	-8.68871
▁Si	-8.68883
▁women	-8.68923
ins	-8.68948
▁coopération	-8.68954
ale	-8.69089
▁most	-8.69145
▁them	-8.69185
▁both	-8.69337
▁va	-8.69387
▁period	-8.69811
▁générale	-8.70151
▁communication	-8.7031
▁product	-8.70322
▁Pro	-8.70472
▁ensure	-8.70504
▁institutions	-8.70557
▁effet	-8.70596
00	-8.70632
▁personnes	-8.70637
ner	-8.70676
io	-8.70808
ont	-8.70854
ateur	-8.70862
the	-8.71242
▁therefore	-8.71331
▁above	-8.71414
ized	-8.71451
ue	-8.71533
▁Une	-8.71609
▁having	-8.71757
aide	-8.71896
ions	-8.7194
▁implementation	-8.7204
ities	-8.72119
▁after	-8.72151
▁test	-8.72168
▁questions	-8.72285
▁moyen	-8.72579
▁his	-8.72856
ish	-8.73149
ils	-8.73158
▁country	-8.7321
▁domaine	-8.7321
ies	-8.73233
▁produits	-8.73382
▁vous	-8.73386
dé	-8.73506
▁Président	-8.73514
▁shall	-8.73538
▁sp	-8.73678
▁grande	-8.73688
▁avant	-8.73821
▁Au	-8.73917
▁sou	-8.7433
10	-8.74449
▁comporte	-8.74537
▁déc	-8.74583
man	-8.74606
▁mis	-8.74662
▁Ces	-8.7478
▁Government	-8.7485
▁2,	-8.74981
▁years	-8.74985
cu	-8.75028
ca	-8.75062
▁claim	-8.7508
com	-8.75115
▁group	-8.75237
ative	-8.75938
nd	-8.76035
▁alors	-8.76077
▁President	-8.7614
ification	-8.76241
aient	-8.76318
▁activities	-8.76348
▁après	-8.7648
ub	-8.76547
▁50	-8.76606
▁toutes	-8.76643
▁recherche	-8.7675
▁force	-8.76928
▁resolution	-8.77123
W	-8.7716
▁Ch	-8.77379
▁résolution	-8.77587
▁material	-8.77617
▁function	-8.77925
▁Co	-8.78069
ial	-8.78105
▁relative	-8.78259
▁couche	-8.78496
▁doivent	-8.78575
ni	-8.78647
▁fois	-8.78779
▁three	-8.78799
▁politiques	-8.78929
▁fi	-8.78965
▁access	-8.7902
▁water	-8.79229
▁active	-8.79387
▁fil	-8.7941
▁account	-8.79522
▁sera	-8.79596
ier	-8.79611
▁outre	-8.79773
lé	-8.79777
ile	-8.80022
▁al	-8.80233
ler	-8.80271
▁laquelle	-8.80421
▁secteur	-8.80523
▁min	-8.80594
▁final	-8.8118
▁current	-8.81228
▁bo	-8.81303
line	-8.81322
▁40	-8.81497
▁bi	-8.81598
▁layer	-8.81761
▁cooperation	-8.81787
iques	-8.81792
▁particularly	-8.81819
▁tra	-8.8195
▁comprises	-8.81968
▁sens	-8.82028
out	-8.82124
ens	-8.82352
her	-8.8246
▁like	-8.82476
serv	-8.82527
▁necessary	-8.82712
▁element	-8.82824
▁shown	-8.82878
em	-8.82907
art	-8.8295
ise	-8.83034
ais	-8.83068
▁sector	-8.83167
▁service	-8.83168
▁module	-8.83249
▁value	-8.83446
ical	-8.83535
▁without	-8.83552
ll	-8.83649
elles	-8.83663
▁valeur	-8.83671
▁2000	-8.8372
▁toute	-8.83777
▁U	-8.83969
mer	-8.84299
▁ca	-8.8433
EN	-8.84469
▁processus	-8.84478
▁trois	-8.84703
▁société	-8.84747
▁taken	-8.84849
▁area	-8.84988
▁state	-8.85048
▁education	-8.85086
▁correspond	-8.85161
▁field	-8.85187
▁given	-8.85212
▁thus	-8.85326
all	-8.8536
▁act	-8.85499
tro	-8.85643
▁increase	-8.85657
cent	-8.85678
▁Elle	-8.85763
▁gestion	-8.85766
▁power	-8.85852
gi	-8.85934
▁100	-8.85981
▁source	-8.85986
▁right	-8.8601
▁financial	-8.86075
go	-8.86086
▁anti	-8.86116
application	-8.86344
be	-8.86348
▁ra	-8.86418
ho	-8.86502
▁ad	-8.86503
▁œuvre	-8.86687
▁These	-8.8686
ensemble	-8.86902
▁multi	-8.86924
▁était	-8.87279
▁Article	-8.87325
land	-8.87438
▁An	-8.87464
▁training	-8.87501
ability	-8.87673
▁23	-8.87726
du	-8.87739
▁internationale	-8.87861
▁just	-8.87868
ène	-8.87908
ight	-8.87911
tu	-8.87912
▁areas	-8.87925
▁change	-8.87954
▁enfants	-8.88063
ton	-8.88211
▁addition	-8.8833
être	-8.88369
j	-8.88458
▁obtained	-8.88715
ally	-8.8884
tor	-8.88941
ts	-8.89055
▁ressources	-8.89069
▁what	-8.8912
▁su	-8.89206
▁direct	-8.89341
▁loi	-8.89359
▁specific	-8.89751
our	-8.89793
iv	-8.89897
K	-8.89978
▁because	-8.90005
▁celle	-8.90135
▁However	-8.90266
▁tri	-8.90288
▁participation	-8.90367
air	-8.90376
ille	-8.90516
ven	-8.906
aires	-8.90653
▁fact	-8.90779
▁résultats	-8.90817
▁health	-8.90843
▁project	-8.90856
▁unit	-8.90946
hi	-8.90946
no	-8.90992
▁entreprises	-8.91008
▁general	-8.91085
État	-8.91288
▁app	-8.91625
ront	-8.91748
▁effect	-8.9175
▁produit	-8.92058
▁vo	-8.92101
▁comprend	-8.92217
▁titre	-8.92492
▁nécessaire	-8.92525
ject	-8.92953
▁X	-8.93201
▁step	-8.93314
▁pendant	-8.934
ction	-8.93418
▁year	-8.93494
▁26	-8.93496
▁1.	-8.93526
▁mettre	-8.93527
▁children	-8.93603
emploi	-8.93614
▁tube	-8.93801
▁energy	-8.94345
ert	-8.94588
▁lui	-8.94664
ration	-8.94698
▁subject	-8.94772
▁interest	-8.95025
environnement	-8.95037
▁security	-8.95071
tr	-8.95082
▁31	-8.95189
▁décision	-8.95251
ga	-8.95433
▁based	-8.9561
▁cent	-8.95893
▁hand	-8.95898
anc	-8.95946
▁another	-8.96006
▁using	-8.96085
▁calcul	-8.96115
▁before	-8.96419
▁Parliament	-8.96477
▁celui	-8.96587
▁limit	-8.96639
ding	-8.96663
▁effective	-8.96919
▁rec	-8.96948
use	-8.96971
▁research	-8.96989
▁ayant	-8.97128
ver	-8.97201
▁us	-8.97322
▁exemple	-8.974
né	-8.97406
▁Ma	-8.97622
▁described	-8.97698
▁gas	-8.97703
▁rôle	-8.97816
EC	-8.9783
▁gr	-8.97892
ow	-8.97906
fin	-8.97988
▁temperature	-8.98009
cy	-8.98069
▁trade	-8.98201
▁température	-8.98223
▁santé	-8.98242
▁now	-8.98342
ase	-8.98567
pl	-8.98923
▁sign	-8.98923
▁progress	-8.99137
▁rotation	-8.99148
▁does	-8.99189
.1	-8.99316
▁raison	-8.99364
▁while	-8.99391
▁présent	-8.99408
ob	-8.99472
amp	-8.99528
▁reference	-8.99607
▁2002	-8.99653
▁various	-8.99706
▁sol	-8.9975
▁member	-8.998
▁central	-8.99865
▁plate	-8.99889
▁many	-9.00006
for	-9.00055
ors	-9.00081
▁éléments	-9.00116
▁paragraphe	-9.00132
▁organisations	-9.00138
int	-9.00183
▁At	-9.00279
▁future	-9.00314
▁personnel	-9.00321
▁side	-9.00331
ind	-9.00401
▁pressure	-9.00449
nal	-9.00472
▁2004	-9.00484
ran	-9.00529
▁points	-9.00843
▁rep	-9.00846
utilisation	-9.00984
▁small	-9.01023
▁lieu	-9.01036
énergie	-9.0106
▁go	-9.011
▁Communauté	-9.0119
▁global	-9.01329
ez	-9.01504
▁comprising	-9.01606
▁pression	-9.01633
▁2001	-9.01864
ient	-9.01904
▁période	-9.02018
X	-9.02061
ning	-9.02092
▁tant	-9.02104
ak	-9.02184
▁cons	-9.02303
ten	-9.02332
ard	-9.02459
▁technique	-9.0249
lle	-9.02504
nel	-9.02518
▁political	-9.02537
son	-9.02592
ordre	-9.02593
▁issues	-9.02615
▁network	-9.02659
▁fond	-9.02733
▁À	-9.02866
ke	-9.02871
▁air	-9.0292
▁UN	-9.02996
▁28	-9.03135
▁Parlement	-9.03172
val	-9.03218
▁2005	-9.03223
▁vie	-9.03339
▁lorsque	-9.03345
én	-9.03381
▁even	-9.03442
▁puis	-9.03445
▁com	-9.03524
▁rest	-9.03573
▁taux	-9.03678
▁decision	-9.03704
▁compris	-9.03756
▁arm	-9.03823
▁connected	-9.03872
der	-9.0391
▁2.	-9.03923
▁regional	-9.04115
▁since	-9.04121
mi	-9.04167
▁resources	-9.0432
ables	-9.04397
▁impact	-9.04423
tra	-9.0446
▁règlement	-9.04475
▁result	-9.04622
▁mar	-9.04705
▁approach	-9.04727
▁différents	-9.04766
▁Com	-9.04775
▁role	-9.04827
na	-9.04991
▁certains	-9.04994
▁port	-9.05008
▁front	-9.05106
vis	-9.05113
▁acid	-9.05116
ici	-9.05764
Y	-9.0583
ante	-9.05954
Europe	-9.0607
▁assistance	-9.06133
ay	-9.06251
▁my	-9.0637
▁partir	-9.06446
▁management	-9.06504
mon	-9.06567
tes	-9.06607
▁commande	-9.06627
▁legal	-9.06925
▁basis	-9.06977
dic	-9.06978
▁meeting	-9.07047
▁met	-9.07081
▁ceux	-9.07146
▁results	-9.07173
yl	-9.0725
▁am	-9.07253
▁via	-9.07452
CE	-9.07453
▁culture	-9.07499
20	-9.07526
AR	-9.07566
▁nature	-9.0766
▁2003	-9.07878
▁volume	-9.07914
▁image	-9.07997
▁man	-9.08001
▁faible	-9.0802
▁special	-9.08066
▁devrait	-9.08132
▁porte	-9.0821
lect	-9.08367
▁carried	-9.08402
▁jusqu	-9.08403
▁ch	-9.08445
ice	-9.08455
ER	-9.08658
▁acc	-9.0874
▁th	-9.08771
ole	-9.08823
▁avoir	-9.08851
ière	-9.08955
tte	-9.08955
▁telle	-9.09014
he	-9.09023
▁million	-9.09028
▁oeuvre	-9.09049
1,	-9.09135
▁électrique	-9.09186
intérêt	-9.09213
▁members	-9.09429
ég	-9.09556
▁2006	-9.0956
▁grand	-9.09564
▁common	-9.09593
AN	-9.0961
od	-9.09731
▁Selon	-9.0977
▁gaz	-9.0983
▁adopted	-9.09898
▁•	-9.09899
▁working	-9.09958
▁sortie	-9.10062
ium	-9.10215
▁products	-9.1033
▁déjà	-9.10388
▁fa	-9.10583
▁According	-9.10583
ang	-9.10628
vers	-9.10714
▁line	-9.10735
▁paix	-9.10768
▁Programme	-9.10795
ux	-9.11097
ness	-9.11205
▁world	-9.11225
▁traité	-9.11252
app	-9.11267
▁equal	-9.11279
▁dispositions	-9.11339
▁objectifs	-9.114
▁Des	-9.11456
▁pouvoir	-9.11619
iti	-9.11625
ack	-9.11646
▁problèmes	-9.1169
cour	-9.11735
▁mobile	-9.11742
▁pu	-9.11756
cur	-9.11774
rait	-9.11844
▁informations	-9.11873
mé	-9.11973
ual	-9.12017
▁caractérisé	-9.12095
▁0,	-9.12351
ix	-9.12454
venir	-9.12675
▁notre	-9.12831
▁commercial	-9.1297
▁treatment	-9.13086
▁permettant	-9.13139
ifs	-9.13302
▁transmission	-9.13503
ian	-9.13571
ger	-9.13624
▁General	-9.13708
▁light	-9.13784
▁risk	-9.13832
▁qualité	-9.13934
▁draft	-9.13988
▁établi	-9.1412
▁–	-9.14216
abilité	-9.14288
▁zones	-9.14609
▁cela	-9.14644
ienne	-9.147
▁Qu	-9.1475
▁note	-9.15
▁lequel	-9.15016
dit	-9.15137
accord	-9.1516
▁3,	-9.15218
▁available	-9.15267
▁real	-9.15338
▁help	-9.1542
cept	-9.15436
sis	-9.15441
▁faut	-9.15631
▁préférence	-9.15834
éré	-9.15895
▁60	-9.16114
▁référence	-9.16297
▁St	-9.16325
▁He	-9.16326
▁32	-9.16337
▁projets	-9.1659
▁avons	-9.1667
uff	-9.16672
▁cover	-9.16712
▁aid	-9.1675
▁tension	-9.16777
ach	-9.1679
position	-9.16832
▁représente	-9.16844
▁prendre	-9.16877
▁machine	-9.1691
▁accord	-9.16929
ments	-9.1693
▁low	-9.1693
▁commun	-9.17016
▁framework	-9.17307
▁relevant	-9.17338
▁Z	-9.17405
▁post	-9.17501
agit	-9.17533
▁Se	-9.17543
▁stratégie	-9.17717
▁third	-9.17756
▁Group	-9.1781
ture	-9.17865
▁body	-9.17888
ON	-9.18021
voir	-9.18023
▁joint	-9.18025
tom	-9.18159
▁mm	-9.18162
▁réunion	-9.1817
tribu	-9.18194
▁civil	-9.18317
vent	-9.18387
ose	-9.18441
cess	-9.18519
▁actions	-9.18543
mor	-9.18553
▁elements	-9.18612
échange	-9.18835
ba	-9.18925
▁violence	-9.18933
▁distance	-9.18996
▁accordance	-9.19063
ful	-9.1907
▁Republic	-9.19168
▁cl	-9.19338
▁2007	-9.19349
cre	-9.19353
ell	-9.19359
▁International	-9.19538
▁tels	-9.19586
ire	-9.19593
tal	-9.19603
gn	-9.19741
▁dit	-9.19755
▁travaux	-9.19874
▁efficace	-9.20005
ef	-9.2004
▁article	-9.20121
▁proposition	-9.2018
▁greater	-9.20345
IC	-9.20346
ha	-9.20422
▁bas	-9.20423
▁coordination	-9.20427
▁nouveau	-9.20458
▁Y	-9.20528
▁towards	-9.20607
▁axis	-9.20644
▁réseau	-9.20753
▁flow	-9.20873
▁region	-9.21039
▁term	-9.2111
▁importance	-9.2113
activité	-9.21216
Assemblée	-9.21232
▁soient	-9.21333
▁interne	-9.21343
▁différentes	-9.21361
▁terminal	-9.21382
mis	-9.21421
isse	-9.21494
tent	-9.21506
▁terme	-9.21586
▁travers	-9.21625
▁avait	-9.21691
▁rate	-9.21715
▁région	-9.21913
▁Groupe	-9.22103
ord	-9.2218
nant	-9.22221
▁metal	-9.22236
▁pièce	-9.22289
0%	-9.223
nelle	-9.2232
▁show	-9.22383
▁model	-9.22454
▁supérieure	-9.22505
▁dernier	-9.22576
tin	-9.22624
nc	-9.22646
ome	-9.22789
▁passage	-9.22924
▁lower	-9.22937
▁ro	-9.22952
fer	-9.22988
▁several	-9.23153
▁(1	-9.2318
rant	-9.23375
▁individual	-9.23399
▁distribution	-9.2347
▁27	-9.23479
ition	-9.23486
IS	-9.23535
▁depuis	-9.23538
▁conc	-9.23645
▁close	-9.23771
▁operation	-9.23794
▁appropriate	-9.23912
▁four	-9.24082
▁here	-9.24082
▁0	-9.24116
▁free	-9.24124
nement	-9.24146
▁patients	-9.24242
▁give	-9.24462
▁propose	-9.245
▁known	-9.24539
▁paragraph	-9.24602
tur	-9.24688
▁There	-9.24705
▁courant	-9.24809
▁im	-9.24814
▁normal	-9.24817
▁0.	-9.24822
▁techniques	-9.24848
▁authorities	-9.24865
▁millions	-9.24901
▁table	-9.24934
▁nouvelle	-9.24941
▁figures	-9.24957
1)	-9.25032
▁among	-9.25118
▁address	-9.25239
12	-9.2534
ane	-9.2534
▁If	-9.25343
▁include	-9.25433
urs	-9.25457
▁study	-9.25492
ʼ	-9.25509
▁already	-9.25536
▁particulière	-9.25547
▁open	-9.25565
▁aim	-9.25786
port	-9.25889
▁dialogue	-9.25966
▁lutte	-9.25989
▁encourage	-9.26039
▁comprise	-9.26043
▁ladite	-9.26205
▁nom	-9.26232
ari	-9.26301
▁continu	-9.26332
▁consider	-9.26364
▁issue	-9.26406
▁groups	-9.26411
mit	-9.26478
▁suite	-9.26706
let	-9.2671
Organisation	-9.26733
▁moment	-9.26814
mat	-9.2685
isé	-9.26859
▁date	-9.26928
5%	-9.26943
duct	-9.26958
▁preferably	-9.27009
...	-9.27013
IN	-9.27038
axe	-9.27068
▁art	-9.2707
▁décrit	-9.27151
▁nouvelles	-9.27244
▁petit	-9.27471
▁site	-9.27594
IT	-9.27626
inter	-9.27647
15	-9.27735
▁how	-9.27747
▁inform	-9.27775
met	-9.27806
General	-9.27922
AT	-9.28085
▁fourni	-9.28095
▁wall	-9.28124
▁ti	-9.28127
▁code	-9.28174
▁Assembly	-9.28188
▁tr	-9.28192
▁problème	-9.2821
née	-9.28231
lin	-9.28273
▁course	-9.28297
emp	-9.28371
▁purpose	-9.28767
vo	-9.28859
▁mono	-9.28894
▁res	-9.28895
▁good	-9.28943
▁fr	-9.28951
por	-9.29001
▁présenté	-9.29014
stitu	-9.29018
▁mini	-9.2911
2)	-9.29199
▁stage	-9.29245
▁proposed	-9.29253
▁still	-9.29277
▁systems	-9.29369
▁cross	-9.29379
▁pla	-9.29442
▁visant	-9.29545
▁pri	-9.29601
▁monde	-9.29705
ize	-9.29729
▁sociale	-9.29762
▁peu	-9.29781
ward	-9.29912
▁internal	-9.29928
ui	-9.30003
gr	-9.30073
▁relations	-9.30089
▁So	-9.30141
▁major	-9.30395
▁obtenu	-9.30404
▁soutien	-9.30477
▁gra	-9.30495
mes	-9.30511
▁mé	-9.30594
▁Directive	-9.30682
▁output	-9.30735
▁pourrait	-9.30886
▁3.	-9.30899
▁voie	-9.31023
▁formed	-9.31039
▁own	-9.31047
iel	-9.31049
▁proposal	-9.31093
▁savoir	-9.31116
▁accept	-9.31245
tch	-9.31346
ième	-9.31434
▁mod	-9.31481
▁reste	-9.3172
▁2008	-9.3178
▁amount	-9.31789
▁systèmes	-9.31855
▁France	-9.31892
▁mélange	-9.31964
▁Comme	-9.32113
▁enter	-9.32217
▁prevent	-9.32219
▁protect	-9.32284
uv	-9.32336
▁vote	-9.32351
▁humain	-9.32398
rain	-9.32434
▁sh	-9.32462
ect	-9.32497
▁perspective	-9.32546
▁concentration	-9.32724
dessus	-9.32868
mb	-9.32874
▁permettre	-9.32907
▁tax	-9.3298
▁corresponding	-9.32983
▁guide	-9.33028
▁held	-9.33056
▁contract	-9.33115
ave	-9.33157
▁condition	-9.33193
▁fonctionnement	-9.33227
▁discrimination	-9.33298
éducation	-9.33316
▁justice	-9.33353
▁single	-9.33386
▁rules	-9.33393
▁wherein	-9.33408
▁men	-9.33475
▁transistor	-9.3349
▁Al	-9.33533
employ	-9.33573
gé	-9.33574
▁performance	-9.33639
isée	-9.33658
entrée	-9.33731
▁sein	-9.33778
▁review	-9.33855
▁developing	-9.33855
▁4.	-9.33901
▁connection	-9.33901
table	-9.33914
▁peace	-9.33998
▁down	-9.34036
dire	-9.34102
ism	-9.34116
atif	-9.34119
▁applied	-9.34181
rou	-9.34192
▁années	-9.34271
jo	-9.34321
▁problems	-9.34359
▁photo	-9.34382
▁débat	-9.3443
▁government	-9.34474
▁représenté	-9.34521
▁o	-9.34563
▁République	-9.34576
iver	-9.34728
▁required	-9.34792
uit	-9.34816
▁initiatives	-9.34839
▁1999	-9.34848
▁capacity	-9.34866
▁clear	-9.34884
ug	-9.34909
▁procédure	-9.34914
▁environment	-9.34974
▁technical	-9.35015
▁concerned	-9.35053
▁modèle	-9.35069
▁vehicle	-9.35104
▁aspects	-9.35112
▁projects	-9.35154
▁cause	-9.35156
▁proportion	-9.35246
▁importante	-9.35322
AC	-9.35423
);	-9.3543
▁cases	-9.35474
▁court	-9.3548
▁longitudinal	-9.35552
▁matériau	-9.35661
▁Gouvernement	-9.35721
▁promotion	-9.35746
▁Ex	-9.3578
▁divers	-9.35793
▁focus	-9.35824
▁positive	-9.35861
EM	-9.35894
▁remain	-9.35948
▁key	-9.36069
▁seront	-9.36106
▁matter	-9.36162
▁simple	-9.36229
EP	-9.36265
▁prior	-9.3633
▁juridique	-9.36337
▁mon	-9.36364
▁transfer	-9.36366
▁able	-9.36372
▁groupes	-9.36394
▁certaines	-9.36405
▁Secretary	-9.36464
▁cha	-9.36474
▁reason	-9.36627
▁six	-9.36669
▁comprenant	-9.36721
▁vertical	-9.36773
▁whether	-9.36881
▁head	-9.36885
▁nouveaux	-9.36947
▁context	-9.36953
▁autorités	-9.37073
cé	-9.37157
état	-9.37166
▁suivi	-9.37293
oli	-9.37369
▁considered	-9.37527
▁mg	-9.37565
▁réalisé	-9.37572
▁space	-9.37579
2.	-9.3762
▁contribution	-9.37623
▁ligne	-9.37624
▁Ainsi	-9.37792
▁Development	-9.37811
50	-9.37855
ONU	-9.37918
▁terms	-9.37965
▁donné	-9.37998
▁policies	-9.38018
cri	-9.3804
ost	-9.38053
▁mois	-9.38086
tri	-9.38177
▁movement	-9.38324
▁potential	-9.38425
ised	-9.38588
way	-9.38604
▁4,	-9.38685
▁employment	-9.38695
res	-9.38696
▁ensemble	-9.38715
▁seulement	-9.38824
▁growth	-9.38865
▁elles	-9.38894
▁together	-9.38902
▁véhicule	-9.38925
▁supply	-9.39188
▁initial	-9.39195
▁coll	-9.392
2,	-9.39257
mm	-9.393
▁object	-9.39364
J	-9.39365
euse	-9.39376
▁station	-9.39439
▁relation	-9.39514
▁sorte	-9.39516
▁renforcer	-9.39577
▁instruments	-9.39596
rage	-9.39668
▁choisi	-9.39717
▁better	-9.39718
▁relatives	-9.3976
▁quant	-9.3982
▁problem	-9.39856
▁film	-9.39862
ring	-9.39894
OR	-9.39916
▁Li	-9.39945
▁analyse	-9.39985
▁Secrétaire	-9.40016
▁sujet	-9.40045
▁say	-9.40149
▁agreement	-9.40157
ju	-9.40192
▁proposé	-9.40243
▁pen	-9.40297
▁durable	-9.40351
.5	-9.40394
▁weight	-9.40399
iser	-9.4052
ric	-9.40536
ble	-9.40648
▁permanent	-9.40679
uch	-9.40684
.3	-9.40751
▁fer	-9.40761
▁sé	-9.40773
▁croissance	-9.40778
▁import	-9.40827
▁communauté	-9.40889
▁technologies	-9.40966
▁comment	-9.40971
▁established	-9.40972
économie	-9.41034
▁ta	-9.41051
ution	-9.4111
▁promote	-9.41117
accès	-9.41132
▁convention	-9.41255
▁mi	-9.41286
30	-9.41339
▁associated	-9.41378
▁série	-9.41379
tation	-9.41488
élément	-9.41513
▁quality	-9.41516
▁Po	-9.41524
▁needs	-9.41541
ory	-9.41592
▁caractéristique	-9.41662
▁cycle	-9.41711
▁régions	-9.41714
▁variation	-9.41787
▁inférieure	-9.41896
▁communautaire	-9.41937
▁allow	-9.41959
▁provisions	-9.42035
oxy	-9.42057
▁input	-9.42063
tru	-9.42226
▁prix	-9.42253
vé	-9.42304
▁especially	-9.42415
▁risque	-9.42488
▁mer	-9.42521
▁last	-9.42538
▁capital	-9.42539
han	-9.42688
▁cell	-9.42698
évolution	-9.42728
▁shows	-9.42847
▁request	-9.4286
▁transition	-9.42867
19	-9.42916
tage	-9.43018
▁etc	-9.43051
objet	-9.43132
▁paroi	-9.43148
▁exchange	-9.43158
4)	-9.43159
13	-9.43242
▁ailleurs	-9.43249
▁principe	-9.4326
▁offer	-9.43288
▁organizations	-9.43341
▁moteur	-9.43376
ives	-9.4341
▁nor	-9.43445
▁chargé	-9.43629
▁liquid	-9.43664
ette	-9.43788
▁Act	-9.43791
▁conformément	-9.43807
men	-9.43845
hui	-9.43859
▁29	-9.43923
▁tenu	-9.43938
▁spécial	-9.43995
▁trou	-9.4402
▁documents	-9.44032
▁création	-9.44073
▁syn	-9.44118
▁corps	-9.44125
▁every	-9.44216
▁attention	-9.44241
ris	-9.44285
▁34	-9.44312
▁haut	-9.44387
▁radio	-9.44588
▁liaison	-9.44597
spect	-9.44688
ever	-9.44707
/5	-9.44713
▁II	-9.44718
▁durée	-9.44779
fu	-9.44784
ifié	-9.44973
▁block	-9.44977
▁membre	-9.45136
emb	-9.45153
ible	-9.45223
▁developed	-9.45253
▁along	-9.45308
▁Monsieur	-9.45354
▁sources	-9.45358
fér	-9.4551
▁message	-9.45548
▁fo	-9.45558
▁serve	-9.45719
▁With	-9.45738
▁improve	-9.4574
▁business	-9.45744
AL	-9.45832
fe	-9.4587
▁additional	-9.45903
entreprise	-9.45916
less	-9.46021
tique	-9.46033
ô	-9.46035
▁suivant	-9.46047
]	-9.46065
▁receive	-9.46106
ien	-9.46122
▁pris	-9.46149
▁fréquence	-9.46158
arm	-9.46217
▁Security	-9.46233
▁bonne	-9.46243
fect	-9.46273
pa	-9.46444
▁conduct	-9.46466
▁financement	-9.46576
▁environmental	-9.46577
▁found	-9.46641
évaluation	-9.46699
▁pratique	-9.46712
▁essential	-9.46815
étude	-9.46861
▁Regulation	-9.46867
▁Sa	-9.46952
▁range	-9.46968
▁serait	-9.46983
▁become	-9.47061
▁society	-9.4707
▁axial	-9.47087
▁full	-9.47116
ates	-9.47186
▁administrative	-9.47186
▁domaines	-9.47219
▁They	-9.47289
▁Court	-9.47327
▁construction	-9.47546
▁reflect	-9.47652
▁FIGS	-9.47698
▁organ	-9.47837
led	-9.47857
▁commune	-9.48091
▁modification	-9.48137
▁target	-9.48307
▁fixed	-9.48347
▁précédent	-9.48419
▁reform	-9.48474
▁EC	-9.48485
▁play	-9.48523
▁includes	-9.48668
▁plane	-9.48727
gra	-9.48737
▁mot	-9.48747
▁maximum	-9.48756
▁libre	-9.48761
pend	-9.4884
▁back	-9.48939
venu	-9.48967
▁legislation	-9.49031
ster	-9.49065
▁col	-9.49128
▁mass	-9.49162
▁jeunes	-9.49165
appui	-9.49191
▁demand	-9.49262
▁defined	-9.49348
▁législation	-9.49369
▁opinion	-9.49377
har	-9.49424
▁utilisé	-9.49464
ages	-9.49506
▁ni	-9.49544
▁celles	-9.4955
pre	-9.49573
▁collect	-9.49636
▁mixture	-9.49652
ort	-9.49687
▁community	-9.49697
▁réponse	-9.49718
des	-9.49756
▁off	-9.49807
▁règles	-9.49812
▁gouvernement	-9.4987
▁life	-9.49881
ili	-9.49895
▁dose	-9.49963
▁link	-9.49991
vit	-9.50002
▁however	-9.50072
az	-9.50234
égalité	-9.5025
▁put	-9.50317
▁commerce	-9.50335
▁short	-9.50347
enseignement	-9.50476
br	-9.50504
cal	-9.50614
▁extrémité	-9.50619
▁plaque	-9.50633
▁design	-9.5064
▁person	-9.50645
▁makes	-9.50678
▁persons	-9.50686
▁pi	-9.5069
uel	-9.5071
▁much	-9.50845
▁toujours	-9.50868
uve	-9.50943
▁bio	-9.50953
cul	-9.50997
▁manner	-9.51183
iff	-9.51189
▁exp	-9.51201
of	-9.51268
▁faveur	-9.51325
ify	-9.51349
ités	-9.51353
▁obtain	-9.51373
▁tour	-9.51423
▁analysis	-9.51601
▁investment	-9.51634
ateurs	-9.51713
▁nécessaires	-9.51732
▁achieve	-9.51805
après	-9.51831
▁élément	-9.51869
▁Thus	-9.51882
▁responsabilité	-9.51925
▁obligations	-9.51978
▁prise	-9.52002
ôt	-9.52024
▁And	-9.52028
entre	-9.52096
▁making	-9.52141
▁event	-9.52153
▁content	-9.52323
fa	-9.5235
▁call	-9.52378
▁response	-9.52384
row	-9.52415
▁constant	-9.52424
ood	-9.52435
▁related	-9.52473
pi	-9.52504
ency	-9.52505
▁reaction	-9.5252
gen	-9.52578
▁super	-9.52646
OS	-9.52658
▁détail	-9.5277
▁principal	-9.52784
▁press	-9.52794
▁procedure	-9.52868
▁correspondent	-9.52904
▁centre	-9.5292
ales	-9.52929
▁levels	-9.53036
▁Office	-9.53143
▁cap	-9.53194
▁régime	-9.53213
▁op	-9.53288
issant	-9.53309
AP	-9.53317
▁difficult	-9.53374
▁applicable	-9.53438
ques	-9.53449
▁user	-9.53493
▁privé	-9.53505
▁chez	-9.53516
issement	-9.53524
▁supérieur	-9.53563
▁bar	-9.53588
▁DE	-9.53604
lig	-9.5364
▁centrale	-9.53664
▁enable	-9.53712
▁commission	-9.53772
exemple	-9.53884
▁respectivement	-9.53973
▁destiné	-9.53982
ified	-9.54034
sible	-9.54124
arrêt	-9.54141
▁36	-9.5422
▁far	-9.5431
ures	-9.54341
▁ve	-9.54359
non	-9.54372
▁nos	-9.54456
▁milieu	-9.54463
▁opening	-9.54473
izing	-9.54493
▁Parties	-9.54538
▁Di	-9.54562
▁économiques	-9.54574
tir	-9.54597
ough	-9.54603
▁increasing	-9.54615
▁présence	-9.5462
▁office	-9.54626
▁ob	-9.54635
▁nationales	-9.54639
▁montre	-9.54696
/2	-9.54897
intérieur	-9.54928
▁police	-9.54931
▁apply	-9.54992
▁lead	-9.55012
▁Conference	-9.55075
lant	-9.55087
▁school	-9.55106
iers	-9.5512
tract	-9.55127
long	-9.5517
▁besoins	-9.55217
stat	-9.55235
▁regulation	-9.55269
▁unique	-9.55297
▁bloc	-9.55299
▁generally	-9.55318
▁Ca	-9.55376
▁35	-9.55384
▁your	-9.55434
▁étaient	-9.55443
can	-9.55465
▁capacité	-9.55521
▁forces	-9.5553
+	-9.55569
▁increased	-9.5558
▁great	-9.55664
▁réforme	-9.55683
iste	-9.55725
▁maintien	-9.55751
▁mean	-9.55872
▁Rights	-9.55904
▁hydro	-9.55971
▁nationale	-9.55971
▁adopté	-9.55983
▁ils	-9.5599
▁voltage	-9.56035
▁Mo	-9.56118
/1	-9.5612
▁care	-9.56167
▁safety	-9.56258
ft	-9.56322
▁devraient	-9.56402
même	-9.56441
do	-9.56442
▁crime	-9.56511
▁types	-9.56583
ock	-9.56671
▁telles	-9.56722
▁électronique	-9.56738
enfant	-9.56745
▁mieux	-9.56745
▁bit	-9.56763
wa	-9.56886
▁December	-9.56894
▁euro	-9.56979
▁eu	-9.57047
▁progrès	-9.57053
▁poids	-9.57133
RE	-9.57162
▁either	-9.5723
espace	-9.57273
ties	-9.5731
▁whose	-9.5732
pir	-9.57429
▁opérations	-9.57441
▁fonds	-9.57484
▁infrastructure	-9.57486
▁Social	-9.57496
▁conclu	-9.5765
▁standard	-9.57734
▁prévu	-9.5779
▁mondiale	-9.5781
▁branch	-9.57851
▁capable	-9.57881
▁axe	-9.5792
we	-9.57922
ières	-9.57925
▁réduction	-9.57956
▁assurer	-9.57966
▁electrical	-9.57984
▁grâce	-9.58017
É	-9.58033
comp	-9.58064
▁provision	-9.58091
▁below	-9.58114
efficacité	-9.58161
▁share	-9.58208
SE	-9.58214
▁complex	-9.58241
bi	-9.58506
fi	-9.58513
▁décembre	-9.58515
▁[	-9.58596
abord	-9.58622
▁tu	-9.58692
▁33	-9.58699
▁fluid	-9.58727
▁external	-9.58745
▁formule	-9.58771
▁Sur	-9.58778
▁Bureau	-9.58805
11	-9.58825
▁cannot	-9.58848
Afrique	-9.58872
rique	-9.58912
▁similar	-9.58935
▁ledit	-9.58939
hy	-9.58949
▁requirements	-9.58954
ace	-9.58977
▁conséquence	-9.5898
écu	-9.5901
▁rural	-9.59043
▁author	-9.59062
dent	-9.59065
▁taking	-9.59096
▁cost	-9.59213
▁bande	-9.59243
▁mal	-9.59274
▁ensuite	-9.59327
▁channel	-9.59333
▁industry	-9.5941
▁pr	-9.59426
▁fixe	-9.59451
isme	-9.59457
gue	-9.59483
▁dispose	-9.59508
ban	-9.59512
▁frequency	-9.59536
14	-9.59564
uc	-9.59593
▁déclaration	-9.59646
▁carbon	-9.5965
▁troisième	-9.59651
ense	-9.59765
tions	-9.59767
▁concept	-9.59874
▁ver	-9.59896
▁1998	-9.5993
nom	-9.59953
1.	-9.60015
▁angle	-9.60019
term	-9.60053
▁Ar	-9.60125
ans	-9.60145
▁42	-9.60169
▁higher	-9.60177
▁objet	-9.60191
▁(2	-9.60212
point	-9.60235
▁vitesse	-9.60274
prise	-9.60298
▁shape	-9.60338
▁réalisée	-9.60411
▁around	-9.60429
*	-9.60435
see	-9.60475
ving	-9.60513
ulation	-9.60578
▁confirm	-9.60583
▁respectively	-9.60687
▁staff	-9.60694
▁optique	-9.60696
ule	-9.60708
▁motor	-9.60732
arch	-9.60736
▁dimension	-9.60736
str	-9.6078
▁comportant	-9.60892
▁existing	-9.61042
▁containing	-9.61052
▁concerning	-9.61105
▁medium	-9.61157
▁Su	-9.61176
▁quatre	-9.6118
▁significant	-9.61265
▁minimum	-9.61287
▁finance	-9.61314
▁ressort	-9.61362
ck	-9.61369
bu	-9.61424
▁radial	-9.61523
▁strong	-9.61543
▁concerné	-9.61577
▁child	-9.61625
▁conflict	-9.6167
▁voir	-9.61728
▁ml	-9.61758
▁received	-9.61782
▁adopt	-9.61801
isant	-9.61949
▁élevé	-9.61979
pic	-9.61997
teur	-9.62068
examen	-9.62103
▁produce	-9.62109
vant	-9.62113
mobil	-9.62175
étend	-9.62176
habit	-9.62207
Unis	-9.62241
▁réduire	-9.62245
▁réaliser	-9.62249
ook	-9.62277
nce	-9.6228
▁utilisée	-9.62316
▁liquide	-9.62316
▁étape	-9.62329
▁conduit	-9.62331
ED	-9.62332
▁contenu	-9.62349
▁constitue	-9.624
cor	-9.62415
▁mouvement	-9.62444
▁gain	-9.62452
▁constituent	-9.62467
▁mou	-9.62541
▁find	-9.62594
▁noted	-9.6262
▁mondial	-9.62639
bo	-9.6271
▁stress	-9.62741
▁come	-9.62901
▁principle	-9.62905
pp	-9.62909
▁5,	-9.62992
▁para	-9.63018
vision	-9.63038
cle	-9.63104
▁intended	-9.6312
▁soumis	-9.63147
▁Minister	-9.63172
ivité	-9.63288
▁Pre	-9.63315
▁experience	-9.63335
▁provides	-9.63453
▁nécessité	-9.63457
mar	-9.635
OM	-9.63507
▁When	-9.63516
▁ans	-9.63574
▁parmi	-9.63618
over	-9.63654
▁montant	-9.63655
▁tend	-9.63672
▁danger	-9.63699
▁cor	-9.6377
▁champ	-9.63892
▁souvent	-9.63895
lumin	-9.63951
▁mol	-9.63967
▁Treaty	-9.63972
▁composé	-9.63998
ticulièrement	-9.64018
▁return	-9.6402
▁food	-9.64025
▁start	-9.64035
DE	-9.64087
▁Conférence	-9.6411
itaire	-9.64117
▁her	-9.64125
ox	-9.64135
▁Mais	-9.64147
ouverture	-9.64253
▁solutions	-9.64275
Uni	-9.64291
▁ten	-9.64355
▁famille	-9.64369
▁disc	-9.64409
▁structures	-9.64564
naire	-9.64588
▁constitué	-9.6461
ear	-9.64724
▁cré	-9.64973
▁approprié	-9.6498
▁wide	-9.64992
▁Fund	-9.64995
▁Etats	-9.64995
▁mark	-9.65008
▁drive	-9.65024
tention	-9.65057
bour	-9.65077
ze	-9.65079
-1	-9.6514
▁affaires	-9.65147
▁seul	-9.65174
hor	-9.653
▁80	-9.65314
ries	-9.65315
▁délégation	-9.65362
▁bring	-9.654
25	-9.65408
▁côté	-9.65466
▁moyenne	-9.65507
▁electro	-9.65516
▁reduce	-9.65528
onde	-9.65546
▁reduction	-9.65562
▁pay	-9.65611
analyse	-9.65617
amélioration	-9.65643
▁heat	-9.65677
ST	-9.65767
oph	-9.65801
▁nationaux	-9.65984
▁ground	-9.66006
▁rou	-9.66063
▁bon	-9.66072
▁affect	-9.66183
expert	-9.66254
ines	-9.6628
ging	-9.66326
mètre	-9.66334
▁sensiblement	-9.66372
▁installation	-9.66418
▁varie	-9.6656
AS	-9.66562
hydr	-9.66568
side	-9.66602
▁commitment	-9.66608
late	-9.66629
ID	-9.66647
▁Ad	-9.66752
expérience	-9.67124
▁double	-9.67136
▁parallel	-9.6715
▁mission	-9.67264
▁configuration	-9.67266
▁filter	-9.67314
▁assembly	-9.67338
▁read	-9.67394
▁applications	-9.67482
▁National	-9.6749
▁longueur	-9.67553
Q	-9.67565
▁potentiel	-9.67605
▁aff	-9.67634
▁aide	-9.67657
▁speed	-9.67658
▁regions	-9.6776
▁administration	-9.67781
▁whole	-9.67809
▁pur	-9.67814
▁priorité	-9.67826
▁effets	-9.67828
▁passe	-9.67904
▁private	-9.67907
▁move	-9.67936
▁pivot	-9.67994
▁formula	-9.68025
▁Africa	-9.68146
▁know	-9.68176
▁Mar	-9.68212
▁existe	-9.68219
▁assist	-9.6822
intégration	-9.68237
matic	-9.68238
▁concern	-9.68296
▁nombreux	-9.68338
era	-9.68422
▁costs	-9.6843
▁chamber	-9.6844
exécution	-9.68548
▁fournir	-9.68552
▁emb	-9.68556
▁mandat	-9.68619
▁normes	-9.68634
▁couple	-9.68654
▁parallèle	-9.68715
▁variable	-9.68724
▁latter	-9.68808
▁Economic	-9.6881
gré	-9.68823
▁civile	-9.68828
▁généralement	-9.68854
▁did	-9.68903
téri	-9.68906
iens	-9.68915
▁description	-9.68976
▁mémoire	-9.68993
mont	-9.6906
▁état	-9.69106
▁besoin	-9.6911
▁job	-9.69121
▁involved	-9.69146
▁length	-9.69193
▁monitoring	-9.6923
▁approche	-9.69261
duction	-9.69295
▁quantité	-9.69322
▁But	-9.6933
tect	-9.69439
▁believe	-9.69495
▁Cour	-9.69514
▁contexte	-9.69514
▁seconde	-9.69525
▁Comp	-9.69527
▁delegation	-9.69541
▁origin	-9.69635
▁develop	-9.69698
alimentation	-9.69719
▁donner	-9.6975
▁attend	-9.69789
ns	-9.6982
▁poste	-9.69849
▁called	-9.69948
érer	-9.69976
ché	-9.70076
asse	-9.70113
▁bro	-9.70116
▁correct	-9.70149
▁200	-9.70234
▁propos	-9.70246
objectif	-9.70305
tan	-9.7039
vol	-9.70395
▁solid	-9.70399
oul	-9.7044
▁pilot	-9.7064
▁atteint	-9.70677
▁transfert	-9.70678
acide	-9.70689
ept	-9.70715
CEE	-9.70722
tive	-9.70803
▁Me	-9.70817
▁providing	-9.70906
▁limited	-9.70914
▁beaucoup	-9.70949
ping	-9.70993
lée	-9.7102
▁flux	-9.7103
▁territoire	-9.71042
eff	-9.71126
▁labour	-9.71129
▁70	-9.71176
▁prises	-9.71187
extrémité	-9.71243
▁edge	-9.71286
tern	-9.71306
▁optical	-9.71315
ick	-9.71388
▁measurement	-9.71452
▁égard	-9.71585
▁trouve	-9.71606
▁turn	-9.71618
duc	-9.71634
lage	-9.71714
▁That	-9.71741
don	-9.71761
▁nucléaire	-9.71775
ép	-9.71779
▁Ro	-9.71855
▁texte	-9.71863
▁presence	-9.71888
▁visit	-9.71904
▁association	-9.71931
ois	-9.71973
▁90	-9.71987
▁objectives	-9.71992
▁ici	-9.72034
▁formé	-9.72049
car	-9.72076
▁assessment	-9.72083
clar	-9.72089
mal	-9.72111
▁initiative	-9.72152
mul	-9.72167
▁liste	-9.72174
▁activity	-9.72178
organisation	-9.72194
▁placed	-9.72244
fusion	-9.72275
▁valeurs	-9.723
OP	-9.72314
day	-9.72379
king	-9.72385
▁CO	-9.72441
lev	-9.72451
▁standards	-9.72461
▁indiqué	-9.72488
▁appear	-9.72505
ax	-9.72599
40	-9.72656
ç	-9.72666
▁polymer	-9.72686
▁défini	-9.72708
▁pratiques	-9.72755
eng	-9.7278
▁internationales	-9.7278
extr	-9.72854
▁difference	-9.72915
.4	-9.72984
▁alternative	-9.73019
étape	-9.73046
lit	-9.73081
▁industrial	-9.73083
▁list	-9.73151
own	-9.73174
▁chacun	-9.7322
▁want	-9.73243
▁electronic	-9.73259
▁former	-9.73312
▁variante	-9.73322
▁méthode	-9.73358
▁reçu	-9.73366
▁revenu	-9.7342
▁itself	-9.73434
▁contribute	-9.73455
▁upper	-9.73462
▁lorsqu	-9.73471
▁Mon	-9.73481
▁practice	-9.73482
▁text	-9.73569
▁operations	-9.73696
▁publique	-9.73703
▁instrument	-9.73712
▁Et	-9.73742
▁combat	-9.73752
▁citoyens	-9.73753
▁vent	-9.73876
▁New	-9.73953
struct	-9.73983
▁=	-9.74039
▁technology	-9.74075
▁chambre	-9.74123
▁permis	-9.74141
cial	-9.74185
▁outside	-9.74191
chi	-9.74226
rate	-9.74249
▁vol	-9.74318
▁objective	-9.74333
▁réaction	-9.74334
administration	-9.74349
▁relating	-9.74349
▁niveaux	-9.74403
▁workers	-9.74429
ode	-9.7444
ising	-9.74488
▁plans	-9.74553
▁bord	-9.74556
xi	-9.7459
▁strategy	-9.74598
part	-9.74632
▁Mme	-9.74691
istes	-9.74845
éral	-9.74884
▁few	-9.74897
▁separate	-9.74936
mination	-9.74942
▁substantially	-9.74966
ray	-9.75008
ET	-9.75051
cher	-9.7508
▁quelques	-9.75086
▁balance	-9.75122
▁stock	-9.75153
▁Human	-9.75158
▁coût	-9.7521
lan	-9.75232
▁appel	-9.75336
UN	-9.75342
▁Gu	-9.75346
▁partenaires	-9.75385
opération	-9.75426
▁Pa	-9.75477
60	-9.75486
▁due	-9.75491
ship	-9.75519
▁agricole	-9.75552
▁cinq	-9.75569
▁sufficient	-9.75679
nes	-9.75687
▁June	-9.75731
train	-9.75867
▁sensor	-9.75914
▁Do	-9.75959
exercice	-9.7599
▁améliorer	-9.76066
▁contenant	-9.76162
▁rappel	-9.76183
▁actuellement	-9.76189
▁consideration	-9.76221
▁directement	-9.76268
▁Special	-9.76334
▁travailleurs	-9.76355
▁renforcement	-9.76388
▁autour	-9.76427
▁path	-9.76447
▁responsable	-9.76511
▁war	-9.76577
▁upon	-9.76665
▁créer	-9.76671
▁relates	-9.76674
▁promouvoir	-9.76771
▁values	-9.76773
▁natural	-9.76837
▁juin	-9.76869
▁nu	-9.7689
▁valid	-9.76896
▁valve	-9.76929
industrie	-9.76947
▁next	-9.76976
▁see	-9.7699
▁require	-9.7705
ific	-9.77062
▁suggest	-9.7721
▁aujourd	-9.77275
▁environ	-9.7743
▁termes	-9.77452
agriculture	-9.77463
ani	-9.77504
▁5.	-9.77505
▁crise	-9.77512
▁oil	-9.77531
ound	-9.77628
mettre	-9.77637
▁1997	-9.77647
ivity	-9.77728
▁welcome	-9.77742
▁avoid	-9.77769
▁représentant	-9.77864
▁age	-9.77897
velop	-9.77924
▁monté	-9.77938
▁connu	-9.77961
vir	-9.78041
▁organismes	-9.78148
▁connaissance	-9.78156
mic	-9.7821
▁auto	-9.78238
oir	-9.78239
▁principale	-9.78241
ov	-9.78278
▁propositions	-9.78281
▁wish	-9.78287
▁engagement	-9.78305
▁recommandations	-9.78411
In	-9.78426
▁seule	-9.7848
af	-9.78572
êt	-9.7858
▁Toutefois	-9.78592
▁38	-9.78649
pha	-9.78708
▁directly	-9.78719
apport	-9.78789
▁convient	-9.78819
▁personne	-9.78883
▁agents	-9.7891
▁Cela	-9.78922
▁sociaux	-9.78946
ame	-9.78964
ê	-9.79
▁equipment	-9.79001
▁size	-9.79024
1/	-9.79026
▁statement	-9.79167
3)	-9.79283
bor	-9.79305
CR	-9.79316
TA	-9.79356
gg	-9.79376
loc	-9.79451
not	-9.79468
▁eux	-9.79515
▁dernière	-9.79549
▁stop	-9.79557
▁revendication	-9.79587
ade	-9.79658
épaisseur	-9.79666
CH	-9.79705
▁effects	-9.79725
▁collaboration	-9.79727
mod	-9.79773
fl	-9.79783
active	-9.79789
▁masse	-9.79856
▁produced	-9.7994
étique	-9.7994
_	-9.79943
▁switch	-9.79951
▁possibilité	-9.80024
ren	-9.80025
▁procédures	-9.80028
ana	-9.80037
▁participants	-9.80044
▁rapporteur	-9.80051
▁item	-9.80203
IR	-9.80222
▁sustainable	-9.80258
▁associé	-9.80335
▁piston	-9.80427
▁recent	-9.80434
▁consiste	-9.80507
▁45	-9.80534
▁cal	-9.80536
établissement	-9.80578
qué	-9.80594
▁guarantee	-9.80614
▁signaux	-9.80747
▁think	-9.80777
dition	-9.80787
▁liberté	-9.80794
SC	-9.8086
▁ring	-9.80924
▁train	-9.80949
95	-9.80984
16	-9.81049
amine	-9.81071
9/	-9.8112
▁ban	-9.8125
▁proposals	-9.8126
année	-9.8127
▁added	-9.813
▁Q	-9.8147
▁discussion	-9.81472
▁contributions	-9.8149
▁Ha	-9.81555
▁seen	-9.81595
▁Service	-9.8161
importance	-9.8164
▁41	-9.8172
▁capacités	-9.81725
▁carte	-9.8174
ats	-9.81791
▁horizontal	-9.81792
ibilité	-9.8181
pri	-9.81846
▁conclusions	-9.81945
▁prepared	-9.81965
▁debate	-9.82011
▁processing	-9.82078
▁substrate	-9.82078
▁frame	-9.82082
▁intervention	-9.82087
▁Inter	-9.82111
log	-9.82139
assurer	-9.82142
▁Sud	-9.82189
ologie	-9.82194
▁procedures	-9.82204
EL	-9.82209
▁record	-9.82231
▁rigid	-9.82243
▁party	-9.82261
▁centres	-9.82264
▁All	-9.82282
chlor	-9.82286
▁recommendations	-9.82305
▁option	-9.82323
quant	-9.82339
▁Centre	-9.82356
▁she	-9.82407
▁Plan	-9.82411
▁often	-9.82433
atory	-9.82494
▁steps	-9.82504
▁font	-9.82538
▁fabrication	-9.8255
▁capteur	-9.82565
▁cre	-9.82565
▁basic	-9.82567
▁principes	-9.82624
▁2009	-9.82636
▁criminal	-9.82712
▁bodies	-9.82735
mission	-9.82765
tim	-9.82772
▁pou	-9.82792
▁confi	-9.82794
▁intérieur	-9.82799
▁44	-9.82803
▁disposition	-9.82843
▁adapté	-9.82881
▁land	-9.82888
oth	-9.82982
AM	-9.82999
pon	-9.83051
▁propre	-9.83081
▁télé	-9.83134
Z	-9.83158
▁plant	-9.83183
cap	-9.83188
ttes	-9.83203
▁experts	-9.83214
▁engine	-9.83252
▁World	-9.83261
jet	-9.83291
▁susceptible	-9.83301
=	-9.83305
▁substrat	-9.83333
▁amendment	-9.83383
▁success	-9.83423
▁consultation	-9.83438
riv	-9.83444
atoire	-9.83459
▁marchés	-9.83495
▁consult	-9.835
▁materials	-9.83611
▁agreed	-9.83714
▁État	-9.8373
▁haute	-9.83743
▁fall	-9.83773
▁designed	-9.83795
▁included	-9.83817
▁US	-9.83893
▁companies	-9.8408
▁articles	-9.84087
pol	-9.84118
▁consumer	-9.84121
▁mort	-9.84184
antes	-9.84197
▁pose	-9.84218
▁cellules	-9.84261
IL	-9.84274
▁fully	-9.84355
▁official	-9.84392
origine	-9.84414
▁operating	-9.84432
▁lit	-9.8446
▁cells	-9.84482
▁citizens	-9.84508
▁déplacement	-9.84539
▁inside	-9.84542
▁conseil	-9.84544
2/	-9.84565
▁méthodes	-9.84565
échantillon	-9.8457
▁young	-9.84576
▁dire	-9.84605
▁prévue	-9.84617
aff	-9.84662
▁ép	-9.84673
▁grave	-9.84688
▁meilleure	-9.84699
▁export	-9.84736
comb	-9.84761
euses	-9.84785
▁serious	-9.84875
▁publication	-9.8493
▁introduced	-9.84996
▁radical	-9.85007
▁forward	-9.85039
temp	-9.85093
▁présentant	-9.85127
▁advantage	-9.852
▁différence	-9.8521
▁É	-9.85242
▁réduit	-9.85248
▁donne	-9.85295
▁integrated	-9.85302
bli	-9.85331
▁changes	-9.85343
▁May	-9.85349
▁Fonds	-9.85408
▁establishment	-9.85424
▁rat	-9.85426
▁décisions	-9.85433
éch	-9.85467
▁difficile	-9.85511
▁externe	-9.85531
▁garantir	-9.85547
▁naturel	-9.85569
▁6,	-9.85639
hu	-9.85699
▁000	-9.85721
▁représentants	-9.85722
▁America	-9.85742
▁nuclear	-9.85791
rie	-9.85837
▁parts	-9.85847
▁secteurs	-9.85867
▁1995	-9.8596
lock	-9.86008
▁1996	-9.86038
▁ratio	-9.86054
".	-9.86381
▁heures	-9.8639
▁ref	-9.86422
▁Pri	-9.86443
▁limite	-9.86605
▁flexible	-9.86685
98	-9.86699
géné	-9.86703
time	-9.86709
▁mai	-9.86771
▁nano	-9.8679
▁52	-9.86852
by	-9.86862
▁appui	-9.86895
▁referred	-9.86988
▁component	-9.87029
▁x	-9.87056
▁benefit	-9.87073
▁minutes	-9.87079
▁methods	-9.87137
▁dépend	-9.87175
valu	-9.87274
▁mécanisme	-9.87276
▁preparation	-9.87322
atique	-9.87329
▁Such	-9.87347
▁needed	-9.87348
▁présenter	-9.87352
yr	-9.87474
image	-9.87519
▁existant	-9.8752
tail	-9.8761
▁By	-9.87614
▁prêt	-9.87625
▁dépenses	-9.87694
▁segment	-9.8772
rog	-9.8774
▁memory	-9.87754
▁début	-9.87813
élaboration	-9.87901
▁might	-9.87943
▁transform	-9.87948
▁reduced	-9.87978
hé	-9.88034
▁actuelle	-9.88052
3,	-9.88068
):	-9.88082
gence	-9.88109
▁ha	-9.88119
▁representative	-9.88132
▁concurrence	-9.88169
▁(19	-9.88178
▁surveillance	-9.88201
▁peuple	-9.88253
ron	-9.88294
▁contained	-9.88444
▁puissance	-9.88479
▁strengthen	-9.88557
▁mu	-9.88609
col	-9.88681
▁cou	-9.8871
▁maintenant	-9.8881
▁résistance	-9.8883
▁ru	-9.88898
based	-9.88905
ssent	-9.88922
▁look	-9.8894
▁mechanism	-9.88951
▁until	-9.88961
▁conforme	-9.88967
6)	-9.88971
▁economy	-9.88991
▁March	-9.88999
▁thickness	-9.89024
mique	-9.89048
ably	-9.89087
▁Commissioner	-9.8911
▁pauvreté	-9.89127
▁adapt	-9.89143
▁today	-9.89151
▁instance	-9.89237
▁trop	-9.89334
▁Constitution	-9.89385
▁spécifique	-9.89397
▁knowledge	-9.89398
▁top	-9.894
▁expressed	-9.89458
▁votre	-9.89599
▁recours	-9.89625
▁Furthermore	-9.89642
ati	-9.89671
▁membrane	-9.89703
press	-9.8974
▁destinée	-9.89775
▁hope	-9.89791
▁obtenir	-9.89797
▁responsible	-9.89816
ene	-9.89838
▁coup	-9.89847
▁professionnelle	-9.89847
▁forms	-9.89896
▁contra	-9.89907
97	-9.8994
▁Enfin	-9.89965
▁housing	-9.89977
▁again	-9.90044
▁rapports	-9.90095
▁partners	-9.90149
▁langue	-9.90165
▁rend	-9.90189
▁thermique	-9.90194
dis	-9.90204
ong	-9.90228
▁rapide	-9.90328
UR	-9.9039
istic	-9.90446
▁Per	-9.90543
▁suspension	-9.90562
▁devant	-9.90628
att	-9.90656
▁utilisés	-9.90674
▁(1)	-9.9068
▁coupe	-9.90722
▁overall	-9.9073
▁risques	-9.90733
▁task	-9.90751
▁average	-9.90773
▁cro	-9.90818
▁Code	-9.90862
EA	-9.90905
%	-9.91082
▁best	-9.91083
▁family	-9.9118
▁agent	-9.91191
▁CE	-9.91193
▁déterminer	-9.9121
4/	-9.91238
pul	-9.91239
▁circulation	-9.91333
▁défi	-9.91358
▁respective	-9.91401
ology	-9.91537
▁responsibility	-9.91548
▁président	-9.91579
▁te	-9.91582
▁conférence	-9.91644
▁determined	-9.91646
▁Tout	-9.91676
fection	-9.9173
existence	-9.91732
▁davantage	-9.91759
▁aucune	-9.9177
force	-9.91812
▁hours	-9.91835
▁prévention	-9.91947
▁reports	-9.91995
▁spéciale	-9.92039
!	-9.92158
▁créé	-9.92212
connect	-9.92233
ides	-9.92235
▁inférieur	-9.92253
▁utile	-9.92265
▁parameter	-9.92317
EEC	-9.92329
▁sommes	-9.92405
▁spécifiques	-9.9241
oxyde	-9.9243
▁organes	-9.92481
ust	-9.925
▁pense	-9.92624
▁revendications	-9.92629
▁selected	-9.92642
tine	-9.92665
▁July	-9.9268
▁dia	-9.92707
▁effort	-9.92749
▁terre	-9.92766
échelle	-9.92817
▁tête	-9.92835
ges	-9.92848
▁lack	-9.92849
CI	-9.92852
▁maintain	-9.92856
▁statut	-9.92869
éli	-9.92901
▁establish	-9.92905
▁plupart	-9.92936
▁préparation	-9.92956
nch	-9.92958
▁semi	-9.92961
▁caractère	-9.9298
▁African	-9.93008
ali	-9.93008
▁composant	-9.93013
▁dès	-9.93021
▁goods	-9.9309
▁alimentaire	-9.93107
▁relatif	-9.93111
▁fixé	-9.93317
▁route	-9.9335
count	-9.93429
▁délai	-9.93448
▁mécanique	-9.93462
rac	-9.93538
▁extend	-9.93578
▁located	-9.93596
fra	-9.93639
▁‘	-9.93647
▁gender	-9.93648
▁represent	-9.9367
cin	-9.93679
▁language	-9.93711
▁counter	-9.93716
activ	-9.93813
▁études	-9.93823
pens	-9.93835
▁exist	-9.93843
▁suivantes	-9.93904
place	-9.93924
▁dés	-9.93935
▁facilitate	-9.9398
LE	-9.94018
▁create	-9.9403
▁integration	-9.94039
adoption	-9.94057
▁bras	-9.9408
▁Working	-9.94087
▁EUR	-9.94113
▁48	-9.94135
▁avaient	-9.94154
ological	-9.94197
▁dimensions	-9.94221
tiques	-9.94268
vention	-9.94277
▁37	-9.94288
▁lesquels	-9.9429
▁objectif	-9.94298
▁modern	-9.94396
▁extract	-9.9441
▁essentiel	-9.94431
▁achieved	-9.94483
▁extra	-9.94501
ature	-9.94508
▁compound	-9.94614
▁too	-9.94651
▁Ba	-9.94664
▁poverty	-9.94699
▁juillet	-9.94718
flu	-9.94751
3/	-9.94762
mber	-9.9478
imp	-9.94795
",	-9.9484
▁studies	-9.94852
▁series	-9.94886
▁détection	-9.94892
▁diameter	-9.94901
▁scientifique	-9.94906
ka	-9.94933
▁One	-9.94957
▁electrode	-9.94968
MP	-9.95002
▁demandé	-9.95016
▁souhait	-9.95022
▁permettent	-9.95153
▁financière	-9.95241
▁fluide	-9.95436
ular	-9.95436
▁dudit	-9.9544
▁independent	-9.95454
idée	-9.95482
▁scheme	-9.95489
▁Après	-9.95497
low	-9.95505
▁rotor	-9.95505
▁principles	-9.95508
▁canal	-9.95515
▁humanitaire	-9.95519
▁diamètre	-9.95524
▁pourraient	-9.95615
▁maladie	-9.95617
▁adoption	-9.95656
▁bottom	-9.95677
▁permit	-9.9569
cho	-9.9571
▁parti	-9.9575
▁métallique	-9.95782
▁manifest	-9.95791
▁bank	-9.95821
▁implemented	-9.95868
▁Th	-9.95954
▁parce	-9.95972
off	-9.95978
▁aucun	-9.96042
pé	-9.96086
▁profit	-9.96091
▁half	-9.96103
▁successive	-9.9612
stall	-9.96163
cell	-9.96168
▁Cependant	-9.96202
▁longer	-9.96213
oxid	-9.96216
▁implement	-9.96356
▁fixation	-9.96433
▁vigueur	-9.96438
77	-9.96443
▁portant	-9.96542
▁meet	-9.96544
▁funds	-9.96575
▁devons	-9.9659
▁1990	-9.96601
▁influence	-9.9663
▁arranged	-9.96654
▁constitution	-9.96654
aw	-9.96661
▁get	-9.96686
▁égale	-9.96692
▁tiers	-9.96694
▁January	-9.96709
éri	-9.96741
limit	-9.96761
▁III	-9.96917
▁faciliter	-9.96923
▁components	-9.96951
▁You	-9.97066
▁pouvant	-9.97071
unité	-9.97084
▁Action	-9.97132
▁presented	-9.97133
▁che	-9.97139
▁class	-9.97193
▁media	-9.97219
mère	-9.97246
▁chose	-9.97269
▁rod	-9.9728
▁priority	-9.97377
ami	-9.97388
▁Organization	-9.97437
bre	-9.9745
▁entire	-9.97452
▁Moreover	-9.97453
▁vise	-9.97466
▁five	-9.97499
▁contribuer	-9.97507
96	-9.9755
▁Dé	-9.9758
▁conséquent	-9.97606
▁cut	-9.97635
CC	-9.97686
▁done	-9.97693
▁past	-9.97719
▁impose	-9.9787
▁exception	-9.97875
▁Vi	-9.97957
lon	-9.97958
▁After	-9.97979
isés	-9.98036
phy	-9.98051
▁primary	-9.98054
po	-9.98114
viv	-9.98163
▁conclusion	-9.98186
▁envisage	-9.98254
▁lumière	-9.98271
cré	-9.98377
▁follow	-9.98377
▁extérieure	-9.9838
▁sample	-9.98461
▁coûts	-9.98467
▁indépendant	-9.98525
▁reach	-9.98539
▁expected	-9.9854
▁(3	-9.98542
′	-9.98623
▁semble	-9.98629
▁represents	-9.98633
▁orifice	-9.98643
▁mounted	-9.98675
▁46	-9.98717
▁principaux	-9.98731
▁submitted	-9.98752
▁organisation	-9.98756
▁sum	-9.98777
▁profil	-9.9881
main	-9.98865
mark	-9.9887
IF	-9.98914
RI	-9.98927
▁refer	-9.98982
▁complexe	-9.98997
▁muni	-9.98997
identification	-9.98999
▁Ré	-9.99004
▁competition	-9.99024
▁année	-9.99032
▁bearing	-9.99061
▁firm	-9.99068
solv	-9.99084
▁laser	-9.99088
▁Israel	-9.99096
▁débit	-9.99101
▁nombreuses	-9.99162
▁months	-9.99176
▁building	-9.99197
▁victim	-9.99329
tar	-9.99339
▁suis	-9.99357
ibility	-9.99381
▁avis	-9.9939
01	-9.99406
▁placé	-9.99428
▁partenariat	-9.99484
▁internationaux	-9.99495
▁South	-9.99509
métrique	-9.99537
▁Du	-9.99566
▁animal	-9.99622
▁concerns	-9.99657
ulaire	-9.99671
▁foreign	-9.99689
▁substances	-9.99704
graph	-9.99728
▁wheel	-9.99764
▁mechanical	-9.99796
▁toutefois	-9.99863
▁mécanismes	-9.99893
5)	-9.99973
▁freedom	-9.99976
▁suivants	-10.0001
▁variant	-10.0004
vid	-10.0008
raient	-10.0017
▁introduit	-10.0021
▁command	-10.0023
▁Bank	-10.0026
investissement	-10.0028
▁Royaume	-10.0032
▁changement	-10.0033
▁evaluation	-10.0036
▁janvier	-10.0039
▁décidé	-10.004
put	-10.006
▁beam	-10.0073
▁regular	-10.0077
▁Table	-10.0079
▁souhaite	-10.008
▁September	-10.0082
▁agreements	-10.0087
▁fast	-10.0092
explo	-10.0093
▁numérique	-10.01
resse	-10.0103
▁réserve	-10.0108
▁pêche	-10.011
▁faisant	-10.0114
▁électro	-10.0115
▁intermédiaire	-10.0116
CO	-10.0117
▁representatives	-10.0119
hér	-10.0119
occu	-10.012
applique	-10.0122
▁IN	-10.0125
▁invite	-10.0129
▁septembre	-10.0131
▁conform	-10.0133
▁souligne	-10.0134
so	-10.0137
▁Br	-10.0141
▁feed	-10.0141
▁catégorie	-10.0142
▁polar	-10.0143
▁agenda	-10.0156
▁Affairs	-10.0162
nu	-10.0162
▁What	-10.0163
▁Vo	-10.0171
▁auprès	-10.0176
▁54	-10.0177
▁orientation	-10.0186
▁minor	-10.0186
ME	-10.0188
▁obtenue	-10.0188
▁em	-10.019
▁load	-10.0192
▁adoptée	-10.0192
cha	-10.0195
▁médicament	-10.0198
▁cur	-10.0203
▁disposé	-10.0208
écart	-10.0208
tting	-10.0209
▁mentioned	-10.021
▁constitute	-10.0214
▁card	-10.0221
▁amend	-10.0223
▁November	-10.0223
▁consommation	-10.0227
voy	-10.0237
▁actif	-10.0239
▁hommes	-10.0247
▁status	-10.025
net	-10.0255
73	-10.0256
▁enhance	-10.0259
▁précédemment	-10.0262
▁réseaux	-10.0263
▁broad	-10.0274
électrode	-10.0276
▁43	-10.0276
▁improvement	-10.0278
▁register	-10.0281
gie	-10.0285
-20	-10.0286
▁deliver	-10.029
▁étude	-10.0292
intermédiaire	-10.0293
▁rail	-10.0311
scribe	-10.0321
DI	-10.0321
▁logement	-10.0325
▁forming	-10.0326
▁self	-10.0331
▁dernières	-10.0333
▁science	-10.0334
▁1994	-10.0345
▁consultations	-10.0346
▁+	-10.0355
▁rendre	-10.0357
▁pin	-10.0363
▁October	-10.0364
▁piece	-10.0364
▁currently	-10.0366
atic	-10.037
▁regarding	-10.0373
▁budgétaire	-10.0376
omb	-10.038
▁Finally	-10.038
venant	-10.0382
PR	-10.0382
wi	-10.0383
▁examiné	-10.0384
▁compared	-10.0385
▁OF	-10.0385
▁Mission	-10.039
▁coefficient	-10.0393
▁restriction	-10.0396
▁Procédé	-10.0397
▁1993	-10.0401
CN	-10.0401
▁marque	-10.0402
▁novembre	-10.0405
▁examine	-10.0417
▁favour	-10.0421
duit	-10.0422
▁day	-10.0424
nov	-10.0424
▁développé	-10.0426
▁sectors	-10.0426
da	-10.0426
▁démocratique	-10.0427
▁decisions	-10.0433
chron	-10.0435
▁emploi	-10.0449
▁loss	-10.045
élé	-10.0452
▁7,	-10.0458
assistance	-10.046
ically	-10.0463
▁manufacture	-10.0464
▁fuel	-10.0465
▁previous	-10.0465
▁kind	-10.0471
▁satellite	-10.0473
IP	-10.0475
▁manage	-10.0476
▁processes	-10.0482
â	-10.0496
▁forte	-10.0503
▁chimique	-10.0505
médi	-10.0511
▁Rapporteur	-10.0512
TE	-10.0525
▁pipe	-10.0528
▁organization	-10.0529
▁juge	-10.0531
structur	-10.0537
▁définition	-10.0539
▁strip	-10.0539
oma	-10.0543
améliorer	-10.0544
▁express	-10.0545
▁voisin	-10.0555
ich	-10.0558
▁voudrais	-10.0558
▁crédit	-10.0558
wise	-10.0562
▁sodium	-10.0571
▁taille	-10.0574
▁entrée	-10.0579
entraîne	-10.0581
▁diffusion	-10.0582
▁allows	-10.0582
instruction	-10.0586
▁transparent	-10.0586
tend	-10.0586
▁behalf	-10.0592
18	-10.0594
▁pension	-10.0598
▁1992	-10.0615
▁occur	-10.062
▁implementing	-10.062
▁trouver	-10.0634
The	-10.0638
▁fonctions	-10.0644
II	-10.0646
take	-10.0652
▁/	-10.0657
04	-10.0661
▁week	-10.0663
établir	-10.0663
▁Luxembourg	-10.0674
▁négociations	-10.0675
▁sort	-10.0675
▁represented	-10.0679
▁annual	-10.0684
▁positions	-10.0694
éno	-10.0694
▁mars	-10.0695
▁différent	-10.0696
Allemagne	-10.0697
▁injection	-10.0697
▁estime	-10.0697
▁Bien	-10.0698
▁accompli	-10.0699
bul	-10.0701
▁sheet	-10.0705
▁complète	-10.0709
▁modes	-10.0716
▁fibres	-10.0727
78	-10.0729
70	-10.0732
▁agricultural	-10.0733
▁advance	-10.0737
ologique	-10.0743
▁secondaire	-10.0749
▁sexe	-10.075
icul	-10.0752
▁vertu	-10.0756
▁aspect	-10.076
▁tâche	-10.076
▁program	-10.0764
▁once	-10.0771
▁tenir	-10.0777
OL	-10.0779
▁51	-10.0781
▁Germany	-10.079
▁terrorisme	-10.0792
▁funding	-10.0793
17	-10.0798
▁tire	-10.0803
▁pair	-10.0813
▁55	-10.0815
rap	-10.0816
▁suitable	-10.082
▁conduite	-10.0823
▁considéré	-10.0824
▁rule	-10.0828
bel	-10.0828
▁distinct	-10.0837
ploy	-10.0843
▁signals	-10.0844
organe	-10.0847
iz	-10.0852
▁Agreement	-10.0853
ii	-10.0854
▁matériel	-10.0856
▁Portugal	-10.0857
ieux	-10.0864
▁utilisant	-10.0866
labor	-10.0867
06	-10.087
rich	-10.087
▁rapid	-10.087
vient	-10.0875
▁comprendre	-10.0877
▁interface	-10.0878
▁communications	-10.088
▁physique	-10.0885
▁critères	-10.0887
▁fiscal	-10.0889
▁remains	-10.0889
▁decided	-10.0891
▁payment	-10.0892
▁THE	-10.0897
▁prévoit	-10.09
effet	-10.0904
▁illustré	-10.091
MI	-10.0912
▁2010	-10.0913
▁tableau	-10.0914
adaptation	-10.0916
▁mechanisms	-10.0916
DC	-10.0929
▁statistiques	-10.0933
▁publics	-10.0936
▁bus	-10.0936
péri	-10.094
▁répond	-10.094
OC	-10.0941
▁polymère	-10.0942
dant	-10.0944
▁yet	-10.0951
▁hold	-10.0951
▁perte	-10.0954
▁antérieur	-10.0957
▁lesquelles	-10.0958
DA	-10.0967
▁progressive	-10.097
▁performed	-10.097
▁rather	-10.0971
▁observed	-10.0979
▁classe	-10.0979
▁compétent	-10.0981
▁fiber	-10.0981
mand	-10.0986
obtenir	-10.0994
▁consist	-10.0997
▁borne	-10.1004
▁lignes	-10.1006
6/	-10.1007
heure	-10.1008
▁certificat	-10.1009
▁conducteur	-10.1009
▁dollars	-10.1012
▁emission	-10.1024
SP	-10.1024
og	-10.1026
émission	-10.1027
▁observations	-10.1027
TS	-10.1031
80	-10.1037
▁situations	-10.1037
posé	-10.1046
▁discussions	-10.105
▁comité	-10.1058
▁tenue	-10.1058
SI	-10.1059
▁identify	-10.1065
▁Na	-10.1071
▁cultural	-10.1073
▁seek	-10.1075
▁idea	-10.1075
▁utiliser	-10.1076
▁stabilité	-10.108
▁run	-10.1081
▁collective	-10.1081
▁Euro	-10.1091
▁determine	-10.1092
vari	-10.1106
▁fraction	-10.1107
▁thank	-10.111
▁totale	-10.1111
utilisateur	-10.1112
▁compétences	-10.1116
▁core	-10.1117
board	-10.1118
▁exclu	-10.112
▁stable	-10.1123
000	-10.1124
▁recon	-10.1124
▁rates	-10.1126
▁properties	-10.1127
▁Tribunal	-10.113
▁humanitarian	-10.1131
▁carbone	-10.1132
▁engagé	-10.1135
▁detail	-10.1136
▁diagram	-10.1138
▁gene	-10.1139
▁séance	-10.1146
▁indique	-10.1148
▁56	-10.1154
▁spring	-10.1155
▁accords	-10.1159
▁continued	-10.1161
▁consists	-10.1162
▁refus	-10.1165
▁speak	-10.1174
▁assess	-10.1177
▁tige	-10.118
MA	-10.1181
▁composés	-10.1184
▁replace	-10.1184
▁(2)	-10.1185
onne	-10.1186
▁gouvernements	-10.1187
approche	-10.1189
▁French	-10.119
85	-10.12
▁globale	-10.1205
acquisition	-10.1206
▁road	-10.1207
▁Board	-10.1216
▁crisis	-10.1218
▁régional	-10.1219
▁partnership	-10.1225
8/	-10.1229
▁octobre	-10.1235
strict	-10.1236
avoir	-10.1236
▁Ministry	-10.1239
▁victimes	-10.1247
▁Lorsque	-10.125
▁armes	-10.1256
▁Iraq	-10.1259
band	-10.1261
▁chemical	-10.1265
▁unité	-10.1267
cular	-10.127
▁consommateurs	-10.1279
▁fundamental	-10.1281
▁Kingdom	-10.1282
intégr	-10.1293
▁covered	-10.1293
▁effectuée	-10.1295
▁Other	-10.13
▁clearly	-10.1301
absence	-10.1301
▁disease	-10.1303
▁April	-10.1312
▁indicator	-10.1322
▁cependant	-10.1323
coup	-10.1327
ATION	-10.1331
▁élevée	-10.1333
▁chacune	-10.1337
▁terrorist	-10.1339
▁ministre	-10.134
pér	-10.134
▁income	-10.134
avis	-10.1348
els	-10.1351
effectue	-10.1355
Com	-10.1364
▁Law	-10.1366
▁domestic	-10.1372
▁Lors	-10.1375
▁militaire	-10.1375
tach	-10.1377
▁pertinent	-10.1378
▁Or	-10.138
▁contrat	-10.1387
▁modifié	-10.1389
prim	-10.1394
rig	-10.1397
▁outer	-10.1398
plication	-10.1408
▁radi	-10.1414
avi	-10.1415
assurance	-10.1417
▁financières	-10.1417
chan	-10.1421
▁sequence	-10.1422
▁utilise	-10.1437
▁répondre	-10.1439
SO	-10.1443
▁insert	-10.1447
dom	-10.1449
▁consacré	-10.1451
▁practices	-10.1452
▁always	-10.1452
bol	-10.1453
▁agencies	-10.1453
initiative	-10.1455
fond	-10.1457
▁solide	-10.1459
dress	-10.1464
▁opportunities	-10.1464
adresse	-10.1466
▁secondary	-10.1473
▁Ra	-10.148
▁62	-10.1487
q	-10.1488
▁compounds	-10.1493
▁intégré	-10.1493
▁donnée	-10.1495
▁Charte	-10.1496
▁diverses	-10.1497
type	-10.1497
▁exc	-10.1497
▁characteristics	-10.1503
▁log	-10.1508
▁challenges	-10.1513
pression	-10.1513
▁filtre	-10.1515
-2	-10.152
▁chosen	-10.1521
▁illustrated	-10.1522
mu	-10.1526
▁rise	-10.1529
▁augmentation	-10.153
▁Bo	-10.1531
▁arrangements	-10.1532
▁identified	-10.1533
▁hard	-10.1536
▁fins	-10.1538
ference	-10.1541
matique	-10.1542
cro	-10.1543
circ	-10.1545
ît	-10.1549
▁display	-10.155
▁quelconque	-10.1551
▁adjust	-10.1552
▁retour	-10.1558
”.	-10.1559
▁conference	-10.156
▁App	-10.1561
▁annex	-10.1564
▁waste	-10.1566
▁tandis	-10.1568
rn	-10.1575
▁contains	-10.1577
▁degree	-10.1577
vance	-10.1577
▁scope	-10.1581
vert	-10.1589
rons	-10.159
▁formes	-10.1595
▁utili	-10.1596
▁comprehensive	-10.1597
omme	-10.16
angle	-10.1603
▁paper	-10.1605
ète	-10.1608
▁supported	-10.1614
▁perform	-10.1616
ash	-10.1617
▁symbol	-10.162
▁motif	-10.1624
▁benefits	-10.1624
▁parents	-10.1626
▁electric	-10.1626
▁apparatus	-10.1626
enne	-10.1627
lor	-10.1628
exploitation	-10.163
▁300	-10.163
99	-10.1638
issent	-10.1639
▁release	-10.1639
rist	-10.164
clusion	-10.1642
▁européens	-10.1648
▁secure	-10.1652
▁lines	-10.1653
▁500	-10.1653
▁meetings	-10.1653
▁étapes	-10.1653
▁company	-10.1654
▁passé	-10.1655
▁missions	-10.1659
▁semaine	-10.1659
den	-10.166
tech	-10.1662
▁threat	-10.1663
▁vrai	-10.1665
▁substance	-10.1665
▁prop	-10.1669
▁opportunity	-10.1669
▁propres	-10.167
agir	-10.1673
▁multiple	-10.1674
▁innovation	-10.1675
▁présentent	-10.1678
▁diode	-10.1681
▁character	-10.1687
▁shaft	-10.169
▁latérale	-10.1695
▁locales	-10.1696
▁price	-10.1698
▁assure	-10.1705
▁pourquoi	-10.1708
▁words	-10.1708
▁candidat	-10.1711
bri	-10.1711
▁corr	-10.1712
▁transmit	-10.1712
▁themselves	-10.172
▁effectué	-10.1721
▁suivante	-10.1721
but	-10.1722
▁prison	-10.1723
▁Protocol	-10.1724
▁faisceau	-10.1725
▁développer	-10.1726
▁aimed	-10.1729
▁pan	-10.173
yn	-10.174
▁indicated	-10.1742
▁départ	-10.1744
▁During	-10.1745
▁liés	-10.175
équipe	-10.176
▁farm	-10.176
▁publié	-10.176
▁contient	-10.1761
▁spatial	-10.1765
▁chaîne	-10.1766
zo	-10.1769
▁explain	-10.177
▁Ne	-10.1777
▁choix	-10.1779
▁convert	-10.1784
▁magnétique	-10.1786
▁contraire	-10.1788
▁mandate	-10.1789
▁relativement	-10.1806
▁suit	-10.1807
ulé	-10.1808
▁appelé	-10.1811
urgence	-10.1813
vin	-10.1819
▁lecture	-10.182
iso	-10.1822
▁partial	-10.1822
▁preuve	-10.1824
▁intermediate	-10.1829
▁magnetic	-10.1834
▁ensuring	-10.1835
▁identique	-10.1837
▁difficultés	-10.1839
▁Each	-10.1841
▁launch	-10.1842
▁negotiations	-10.1844
▁portée	-10.1848
occupation	-10.1851
▁rapidement	-10.1855
égal	-10.1857
75	-10.1858
▁prend	-10.1861
ème	-10.1863
▁retard	-10.1865
▁Under	-10.1865
▁seuil	-10.1866
ann	-10.1866
▁occasion	-10.1869
ja	-10.1873
▁Ils	-10.1877
▁structural	-10.1878
▁measured	-10.1881
▁circu	-10.1881
▁criteria	-10.1881
avenir	-10.1886
▁Arab	-10.1888
▁Since	-10.1888
▁took	-10.1895
▁disponibles	-10.1898
▁classique	-10.1899
▁improved	-10.19
▁contrainte	-10.19
▁opt	-10.1901
▁violations	-10.1902
▁early	-10.1904
▁surtout	-10.1904
▁favorable	-10.1906
▁causes	-10.1907
▁graph	-10.1909
▁advantageously	-10.191
qua	-10.1912
just	-10.1917
▁efficiency	-10.1924
ducteur	-10.1929
émi	-10.1931
meter	-10.1933
▁audit	-10.1936
▁opposite	-10.1941
▁représentée	-10.1943
▁lien	-10.1946
égard	-10.1946
omp	-10.1947
impact	-10.1948
ttle	-10.1954
▁entendu	-10.1956
▁creation	-10.196
▁strict	-10.1961
▁controlled	-10.1962
▁feature	-10.1964
agent	-10.1968
affaire	-10.1977
▁join	-10.1977
▁extent	-10.1982
▁drug	-10.1983
▁macro	-10.1993
▁High	-10.1993
▁secrétariat	-10.1996
âge	-10.2
▁though	-10.2001
▁financiers	-10.2007
▁delay	-10.2007
▁particules	-10.2008
▁operator	-10.2011
muni	-10.2013
▁essentiellement	-10.2013
▁colonne	-10.2014
▁clair	-10.2015
▁him	-10.2016
▁changements	-10.2019
amplitude	-10.2025
▁avril	-10.2026
▁came	-10.2027
▁Madam	-10.2029
▁rang	-10.2034
▁possibilités	-10.204
▁approximately	-10.2042
▁military	-10.2044
▁chi	-10.2052
▁complet	-10.2052
90	-10.2053
▁réglementation	-10.2055
▁alkyl	-10.2063
▁alter	-10.2066
▁thereof	-10.2073
▁silicon	-10.2078
▁appliquée	-10.2082
▁complémentaire	-10.2085
arbre	-10.209
▁Figure	-10.2094
▁Fa	-10.2097
▁rendu	-10.21
▁conjoint	-10.2105
igh	-10.2105
▁continuous	-10.2106
adi	-10.2112
▁quel	-10.2113
ambi	-10.2114
▁préalable	-10.2114
était	-10.2116
▁primaire	-10.2118
▁technologie	-10.2125
▁wave	-10.2126
▁montré	-10.2136
▁Chine	-10.214
76	-10.2146
▁précise	-10.2149
bra	-10.2149
▁énergétique	-10.2157
▁followed	-10.2158
▁version	-10.2158
▁enquête	-10.2159
▁brought	-10.2165
▁detection	-10.2167
▁adapted	-10.2169
▁près	-10.2174
▁stability	-10.2178
▁keep	-10.2179
▁stratégique	-10.2183
▁physical	-10.2184
▁liées	-10.2186
▁practical	-10.2187
▁authority	-10.2189
▁chef	-10.2192
67	-10.2193
▁propriétés	-10.2193
▁lateral	-10.2195
▁évaluation	-10.2196
▁là	-10.2197
▁patient	-10.2205
▁exploit	-10.2209
▁commence	-10.2211
▁name	-10.2212
▁garantie	-10.2213
itude	-10.2216
▁saisi	-10.2221
▁accident	-10.2226
▁participate	-10.2227
▁avantages	-10.2236
▁storage	-10.2242
8)	-10.2243
▁socio	-10.2258
▁avantageusement	-10.2259
section	-10.2259
▁home	-10.2262
▁communautaires	-10.2267
▁Palestinian	-10.2269
▁receiving	-10.227
▁lié	-10.2274
▁committee	-10.228
▁complete	-10.228
▁conventional	-10.2285
2001	-10.2287
.6	-10.2287
▁irr	-10.2295
▁situé	-10.2296
▁matériaux	-10.2298
▁conflit	-10.23
▁column	-10.2301
▁décrite	-10.2308
▁reported	-10.2311
▁transformation	-10.2313
▁Cet	-10.2313
▁First	-10.2319
▁aider	-10.2321
▁uniform	-10.2328
▁utilisation	-10.2332
▁across	-10.2334
IM	-10.2335
▁publiques	-10.2338
▁manque	-10.2341
▁interaction	-10.2353
▁follows	-10.2356
cision	-10.2357
▁going	-10.2358
▁consistent	-10.2363
▁handicap	-10.2364
▁requires	-10.2365
▁closed	-10.2365
▁efficient	-10.2372
▁investissements	-10.2377
▁éventuellement	-10.2379
▁financier	-10.238
▁Annex	-10.2386
rial	-10.2391
▁pollution	-10.2393
05	-10.2398
▁resulting	-10.2398
▁compensation	-10.24
▁cm	-10.2401
▁réception	-10.2405
▁useful	-10.2415
▁requested	-10.2419
▁sociales	-10.2419
▁seem	-10.242
▁Forum	-10.2425
▁forest	-10.2425
▁computer	-10.2429
68	-10.2435
▁Ministère	-10.2435
▁Membres	-10.2436
▁scale	-10.2443
▁séquence	-10.2446
▁accès	-10.2448
▁break	-10.2449
▁adult	-10.2454
▁exprimé	-10.2455
▁quelle	-10.2462
▁relatifs	-10.2465
▁sanctions	-10.247
▁conflits	-10.2475
▁relationship	-10.2476
▁vu	-10.2477
▁ville	-10.2483
▁supplémentaires	-10.2487
▁formal	-10.2491
ital	-10.2491
▁mention	-10.2493
▁extérieur	-10.2493
▁throughout	-10.2498
agissant	-10.2498
▁ter	-10.25
▁panel	-10.2502
▁digital	-10.2504
rice	-10.2506
▁clairement	-10.2507
▁select	-10.2522
▁measure	-10.2525
▁definition	-10.2525
organ	-10.2526
ât	-10.2528
vel	-10.2528
▁Central	-10.253
▁reliée	-10.2532
▁participer	-10.2534
▁qualification	-10.2536
▁permettra	-10.2538
î	-10.2538
aï	-10.254
▁improving	-10.2543
▁financing	-10.2552
▁organic	-10.2554
▁actuel	-10.2559
▁barre	-10.2559
▁travel	-10.2562
lac	-10.257
7)	-10.257
ifier	-10.2571
▁adequate	-10.2572
▁operate	-10.2573
bit	-10.2574
▁why	-10.258
▁Bar	-10.2589
amide	-10.2592
▁quand	-10.2594
éro	-10.2601
▁host	-10.2602
éni	-10.2602
▁subsequent	-10.2604
▁consequence	-10.2605
▁rear	-10.2613
spec	-10.2616
▁puisse	-10.2617
▁Canada	-10.2626
ink	-10.2626
▁judiciaire	-10.2629
▁tendance	-10.2633
▁organique	-10.2637
▁chance	-10.2639
EF	-10.2645
ki	-10.2645
titution	-10.2646
▁migration	-10.2647
▁carry	-10.2647
▁color	-10.2654
▁addressed	-10.2662
accumul	-10.2663
▁120	-10.2664
▁days	-10.2671
94	-10.2671
▁relié	-10.2672
▁39	-10.2672
▁légère	-10.2673
▁plein	-10.2674
▁Justice	-10.2675
92	-10.2678
▁While	-10.268
duire	-10.268
▁sent	-10.2685
▁pourra	-10.2686
▁grant	-10.2691
▁climate	-10.2692
▁continuer	-10.2694
▁thermo	-10.2694
▁régionales	-10.27
▁blade	-10.2704
▁threshold	-10.2705
▁Sub	-10.2709
▁majeur	-10.2709
▁previously	-10.271
▁combustion	-10.2714
▁approuvé	-10.2715
▁facteurs	-10.2717
▁factor	-10.2722
▁comportement	-10.2733
UNICEF	-10.2735
▁métal	-10.2736
▁Résumé	-10.274
▁relatively	-10.2741
▁rev	-10.2746
93	-10.2748
▁milli	-10.2752
▁Internet	-10.2753
▁composite	-10.2755
▁consensus	-10.2755
24	-10.2756
ple	-10.2761
▁visible	-10.2762
▁transmis	-10.2765
▁précis	-10.2767
erie	-10.277
voi	-10.277
▁déclaré	-10.2775
ouvrir	-10.278
▁limitée	-10.2781
▁although	-10.2786
▁chiffre	-10.279
isent	-10.2804
▁sélection	-10.2807
▁approved	-10.2808
▁prices	-10.2809
oût	-10.2809
▁factors	-10.281
▁setting	-10.2815
▁poor	-10.2817
▁negative	-10.2818
▁Car	-10.2818
▁quelque	-10.2819
▁crucial	-10.2821
adhésion	-10.2824
▁introduction	-10.2827
▁paramètres	-10.2831
▁Division	-10.2844
▁respond	-10.2854
▁intra	-10.2858
III	-10.2859
PE	-10.286
▁considérée	-10.2863
▁expenditure	-10.2866
79	-10.2867
▁Some	-10.2867
▁pump	-10.2868
▁roue	-10.287
▁glass	-10.2875
appel	-10.2888
▁rempli	-10.2888
lip	-10.2893
▁félicite	-10.2898
▁protéger	-10.29
▁résultat	-10.29
▁soins	-10.2906
▁container	-10.2907
▁connexion	-10.2908
▁Director	-10.2908
▁mut	-10.2916
▁obligation	-10.2918
▁preferred	-10.2925
▁étrangère	-10.2927
NU	-10.2929
▁remove	-10.2935
▁expression	-10.2938
▁défense	-10.2942
chloro	-10.2944
fil	-10.2945
▁obstacles	-10.295
▁facile	-10.295
évaluer	-10.2953
▁instant	-10.296
▁constate	-10.2973
parti	-10.2973
ah	-10.2974
▁absorb	-10.2978
national	-10.2983
tour	-10.2984
1%	-10.2991
▁53	-10.2996
équilibre	-10.3001
▁majority	-10.3007
▁election	-10.3015
▁personal	-10.3024
▁&	-10.3025
▁viol	-10.3026
▁border	-10.3027
rais	-10.3028
cadre	-10.303
▁1991	-10.3035
vienne	-10.3038
▁fonctionne	-10.3038
observation	-10.3042
▁sold	-10.3042
▁entend	-10.3048
▁pixel	-10.3051
▁cellule	-10.3052
▁Part	-10.3056
▁appliqué	-10.3059
▁February	-10.306
pass	-10.3068
▁Department	-10.3072
▁absence	-10.3078
▁Gra	-10.308
▁harm	-10.3089
crit	-10.3091
invest	-10.3096
▁More	-10.3099
▁prevention	-10.3104
2005	-10.3105
▁identical	-10.3107
▁protocole	-10.3108
▁retrait	-10.3109
avant	-10.3109
▁page	-10.3112
▁schématique	-10.3114
▁Banque	-10.3115
atrice	-10.3118
impulsion	-10.3119
2%	-10.3121
▁demonstrate	-10.3125
▁planning	-10.3125
▁Abstract	-10.3127
yle	-10.3128
▁Finland	-10.3129
▁fluor	-10.3137
▁professional	-10.3141
▁consumption	-10.3147
▁uniquement	-10.315
▁left	-10.3151
▁pleinement	-10.3154
▁février	-10.3156
▁formulation	-10.3156
▁français	-10.3161
▁dynamique	-10.3165
▁paiement	-10.3168
▁conversion	-10.317
▁bou	-10.3171
▁chain	-10.3175
▁Report	-10.3177
▁gel	-10.3181
▁extension	-10.3187
▁exercise	-10.3194
▁durant	-10.3194
▁définit	-10.3194
élimination	-10.3195
▁atteindre	-10.3196
▁diffus	-10.32
▁Kosovo	-10.3203
▁band	-10.3204
▁proper	-10.3213
hydroxy	-10.3214
▁Congo	-10.3215
▁old	-10.3223
▁operational	-10.3227
▁meilleur	-10.3227
▁client	-10.3231
▁arrière	-10.3233
▁credit	-10.3237
▁strategies	-10.3242
▁traiter	-10.3244
▁passer	-10.3245
building	-10.3245
identifi	-10.3246
crat	-10.3248
▁correction	-10.3249
bat	-10.3251
auto	-10.3251
poly	-10.3252
▁aircraft	-10.3252
▁58	-10.3253
▁guidelines	-10.3253
▁linked	-10.3254
▁Information	-10.3259
▁exposé	-10.326
▁longue	-10.3264
▁représentent	-10.3269
▁urgent	-10.327
▁maintenir	-10.327
environ	-10.327
Amérique	-10.3271
▁strengthening	-10.3273
▁offre	-10.3273
▁conception	-10.3283
▁préoccupation	-10.3284
▁living	-10.3285
▁translation	-10.329
▁characterized	-10.3293
▁similaire	-10.3296
▁$	-10.3296
▁inner	-10.3296
▁transmitted	-10.3298
▁promoting	-10.33
medi	-10.3303
▁coordinate	-10.3303
▁opérationnel	-10.3312
▁thème	-10.3312
▁understanding	-10.3313
▁successful	-10.3313
▁siège	-10.3322
▁issu	-10.3326
▁pattern	-10.3328
▁reducing	-10.3332
▁affected	-10.3333
▁considérable	-10.3339
▁trait	-10.3346
▁add	-10.3348
▁principalement	-10.3354
▁possibility	-10.3361
▁requis	-10.3362
▁EESC	-10.3362
▁precise	-10.3362
▁majorité	-10.3365
huile	-10.3371
▁adjacent	-10.3373
▁Women	-10.3378
—	-10.3379
▁éco	-10.338
▁dépôt	-10.3381
▁indispensable	-10.3388
▁Ju	-10.3401
▁tissu	-10.3404
ious	-10.3407
▁screen	-10.3407
▁considère	-10.3408
▁define	-10.3413
▁check	-10.3423
▁chômage	-10.3424
▁boîtier	-10.3437
▁institution	-10.3441
▁phénomène	-10.3442
▁compromis	-10.3444
▁associée	-10.3457
▁tourism	-10.3459
▁égal	-10.3466
▁compression	-10.3471
▁combination	-10.3475
▁particles	-10.3479
▁wire	-10.3483
▁created	-10.3483
2000	-10.3485
▁investigation	-10.3485
▁urge	-10.3487
▁examen	-10.3489
▁64	-10.3492
▁solvent	-10.3496
▁étroite	-10.3499
▁matrice	-10.3507
▁définie	-10.3511
▁evidence	-10.3516
▁observé	-10.3516
▁entitled	-10.3518
▁treated	-10.3521
▁feuille	-10.3522
▁thermal	-10.3526
▁curve	-10.3532
▁maritime	-10.3533
▁supporting	-10.3542
2003	-10.3543
▁établissements	-10.3544
socia	-10.3545
opérateur	-10.3549
▁intérieure	-10.355
▁monitor	-10.355
▁appar	-10.3551
▁dû	-10.3554
▁proche	-10.3556
▁profile	-10.3561
▁prochaine	-10.3564
Italie	-10.3565
▁chapitre	-10.357
arbitr	-10.3573
▁reinforce	-10.3576
▁screw	-10.358
inspection	-10.3582
▁little	-10.3585
▁Chaque	-10.3586
▁fibre	-10.3592
▁solvant	-10.3593
▁actes	-10.3599
▁experiment	-10.3604
▁near	-10.3613
▁survey	-10.3624
▁nécessite	-10.3625
sulf	-10.3631
▁hydrogen	-10.3639
Bas	-10.3641
immun	-10.3641
▁terrain	-10.3643
▁organe	-10.3644
.7	-10.3645
▁menace	-10.3646
▁′	-10.3649
▁damage	-10.3651
ï	-10.3652
▁groove	-10.3657
▁sûr	-10.366
▁ET	-10.3662
▁150	-10.3668
tré	-10.367
▁extreme	-10.3671
▁thereby	-10.3675
▁EPMATHMARKEREP	-10.3677
annexe	-10.3681
▁CESE	-10.3687
▁terrorism	-10.3688
▁acceptable	-10.369
▁detailed	-10.369
▁définir	-10.3692
▁géo	-10.3698
arrière	-10.37
▁adjustment	-10.3701
▁connue	-10.3719
▁Italy	-10.3728
intention	-10.3731
▁ajouté	-10.3733
▁ouvert	-10.3734
atin	-10.3734
▁catalyst	-10.3734
▁enregistré	-10.3738
▁exact	-10.3738
▁vient	-10.3739
innovation	-10.3742
▁incidence	-10.3743
▁decrease	-10.3743
▁mentionné	-10.3747
▁exige	-10.3749
▁outcome	-10.375
Est	-10.3751
▁original	-10.3754
▁hole	-10.3754
▁avancé	-10.3758
ulated	-10.3763
▁exclusive	-10.3765
▁desired	-10.3773
▁réelle	-10.3774
▁éviter	-10.3788
▁China	-10.3788
érant	-10.3789
orientation	-10.379
▁constituée	-10.3791
attaque	-10.3792
▁fail	-10.3794
▁location	-10.3798
▁reached	-10.3799
▁110	-10.3801
glyc	-10.3805
▁assume	-10.3809
▁voit	-10.3809
▁réuni	-10.3811
last	-10.3813
▁apparaît	-10.3815
▁index	-10.3815
cover	-10.3825
autorité	-10.3828
▁protein	-10.3832
poli	-10.3841
▁reconnu	-10.3843
▁μ	-10.3844
▁cylinder	-10.3849
▁indicate	-10.385
▁apporté	-10.3861
23	-10.3862
IV	-10.3873
▁âgé	-10.3874
▁régionale	-10.3876
▁75	-10.3876
▁gate	-10.3882
▁Direct	-10.3882
▁HIV	-10.3883
▁catalyseur	-10.3887
▁déchets	-10.3888
▁Lisbon	-10.3897
▁schéma	-10.3898
▁specifically	-10.3907
▁compatible	-10.3907
▁vision	-10.3908
▁Spain	-10.3909
▁exigences	-10.3911
88	-10.3913
▁connecting	-10.3913
▁fixée	-10.3915
US	-10.3915
▁pulse	-10.3916
21	-10.392
▁priorities	-10.3921
▁opposé	-10.3922
▁cru	-10.3924
▁indication	-10.3924
▁Plus	-10.3927
Association	-10.3941
ogen	-10.3944
▁resistance	-10.3945
enceinte	-10.3946
3%	-10.3947
▁gouvernementale	-10.3948
▁succès	-10.3949
▁violation	-10.3957
Espagne	-10.3957
▁trend	-10.3961
▁indirect	-10.3963
▁plasma	-10.3965
▁consultatif	-10.3969
▁usage	-10.3974
▁COM	-10.3974
▁illustre	-10.3978
▁fight	-10.398
▁poursuivre	-10.3981
▁clé	-10.3985
metric	-10.3986
▁automatic	-10.3991
▁involve	-10.3992
▁weapons	-10.3998
DR	-10.4003
▁automatique	-10.4006
▁séparé	-10.4011
▁shift	-10.4013
▁circumstances	-10.4013
explique	-10.4014
▁formant	-10.4026
▁beyond	-10.403
▁suivre	-10.4037
▁Although	-10.4044
gramme	-10.4045
édi	-10.4051
▁Trans	-10.4055
▁recevoir	-10.4058
posant	-10.4063
35	-10.4065
▁fund	-10.4067
cription	-10.4072
29	-10.4074
▁Section	-10.4074
▁allowing	-10.4077
▁mené	-10.4083
▁stockage	-10.4085
▁oxide	-10.4087
▁présidence	-10.4089
▁joue	-10.409
▁méta	-10.4094
▁verre	-10.4095
aliment	-10.4095
▁mainly	-10.4097
insertion	-10.4097
▁ACP	-10.4104
▁limitation	-10.4107
▁plutôt	-10.4115
▁organisé	-10.4125
▁dérivé	-10.4126
métrie	-10.4128
▁namely	-10.4129
▁highlight	-10.4135
▁61	-10.4148
▁climatique	-10.4149
▁billion	-10.4152
infraction	-10.4152
▁recommended	-10.4158
▁brevet	-10.416
▁agree	-10.416
▁likely	-10.4162
AIDS	-10.4162
▁prenant	-10.4163
indice	-10.4164
▁cible	-10.4171
▁déterminée	-10.4174
▁souligné	-10.4175
▁remercie	-10.4175
▁pénale	-10.4176
accroître	-10.4181
▁veiller	-10.4182
▁destruction	-10.4187
▁guerre	-10.4191
sult	-10.4193
▁soutenir	-10.4196
utiliser	-10.4197
▁cylindrique	-10.4207
▁scientific	-10.4209
▁heating	-10.421
mili	-10.4215
Afghanistan	-10.4217
▁supplémentaire	-10.4218
▁critical	-10.422
▁cylindrical	-10.4222
▁torture	-10.4224
▁Representative	-10.4225
▁annexe	-10.4226
chrom	-10.4235
▁peine	-10.4236
▁nitr	-10.4237
vic	-10.4238
▁65	-10.424
erreur	-10.4242
▁urban	-10.4244
▁mesuré	-10.4256
▁souple	-10.4257
▁maintenance	-10.4261
▁professionnel	-10.4264
▁vaccin	-10.4266
▁aurait	-10.4266
▁acteurs	-10.4267
▁régulière	-10.4269
▁femme	-10.4278
élaborer	-10.4279
▁moving	-10.4282
▁Secretariat	-10.4289
▁Pays	-10.4291
▁PME	-10.4293
▁dynamic	-10.4293
▁réservoir	-10.4305
▁jeu	-10.4305
▁initiale	-10.4306
▁réacteur	-10.4312
▁East	-10.4325
▁drawing	-10.4326
▁committed	-10.4329
▁considération	-10.4329
▁property	-10.4332
▁file	-10.4333
87	-10.4338
dessous	-10.434
▁ball	-10.4341
amino	-10.4341
▁reactor	-10.4347
ège	-10.435
▁Japan	-10.4367
turb	-10.4368
ama	-10.4368
▁industrielle	-10.4368
▁intitulé	-10.437
▁leading	-10.4372
▁statistics	-10.4372
▁establishing	-10.4372
▁constituted	-10.4376
▁collecte	-10.4382
▁appareil	-10.4383
▁Environment	-10.4388
▁tradition	-10.4389
▁Afin	-10.4393
▁hauteur	-10.4394
▁Ireland	-10.4398
▁Nord	-10.4401
▁lancé	-10.4403
▁Force	-10.4405
illage	-10.4407
ifiant	-10.4408
▁exceed	-10.4411
▁bout	-10.4415
tig	-10.442
▁secretariat	-10.4421
▁ouverture	-10.4427
augmenter	-10.4428
▁actual	-10.4429
related	-10.4432
oz	-10.4437
logue	-10.4439
▁regime	-10.444
▁câble	-10.4443
▁suffisamment	-10.4445
▁située	-10.4447
arri	-10.4448
extérieur	-10.4449
▁stated	-10.4453
▁fragment	-10.4454
▁nm	-10.4454
accent	-10.4459
▁palestinien	-10.446
▁partage	-10.4465
▁CH	-10.448
▁autorisé	-10.4481
▁stand	-10.4486
▁anglais	-10.4493
▁leave	-10.4496
▁plurality	-10.4496
▁bureau	-10.4512
tel	-10.4514
américain	-10.4517
▁interpret	-10.4517
mbre	-10.4518
▁émissions	-10.4519
▁connecté	-10.4526
▁cable	-10.4527
▁blanc	-10.4531
▁pH	-10.4532
▁Ni	-10.4533
26	-10.4537
voqu	-10.454
▁favoriser	-10.4544
équipement	-10.4546
▁projection	-10.4548
▁contain	-10.4549
▁déposé	-10.4551
▁ultra	-10.4552
▁signature	-10.4556
▁steel	-10.4557
86	-10.4561
▁published	-10.4563
▁cavité	-10.4572
▁ECU	-10.4572
flect	-10.4574
▁team	-10.4575
hydro	-10.4579
▁Ab	-10.4581
▁Another	-10.4583
▁écrit	-10.4592
▁élastique	-10.4592
▁jamais	-10.4593
▁drop	-10.4594
▁procure	-10.4603
▁relève	-10.461
▁élaboré	-10.461
▁sensible	-10.4611
▁gap	-10.4616
▁measuring	-10.462
▁starting	-10.4623
▁proceedings	-10.4626
▁institutional	-10.463
▁rare	-10.4635
intéressé	-10.4636
▁paid	-10.4641
▁raised	-10.4643
enquête	-10.4649
▁garanti	-10.465
Irlande	-10.4651
▁learning	-10.4657
▁volonté	-10.4658
▁IV	-10.4659
▁word	-10.4661
▁debt	-10.4667
▁functional	-10.4669
▁accessible	-10.467
pan	-10.4672
sensitive	-10.4678
▁assuré	-10.4681
▁Example	-10.4683
▁skills	-10.4686
2002	-10.4689
▁reprise	-10.4689
onic	-10.469
▁coupling	-10.4699
▁augmente	-10.4704
IE	-10.4705
▁conducted	-10.4708
▁unemployment	-10.4715
▁exploitation	-10.4715
fold	-10.472
delà	-10.472
pond	-10.4726
▁modifier	-10.4726
▁prévoir	-10.4728
▁rayon	-10.4735
EX	-10.4736
augmentation	-10.4737
▁Netherlands	-10.4738
▁choice	-10.4743
▁organisée	-10.4747
▁strategic	-10.4748
engagement	-10.4748
▁fulfil	-10.475
▁carrying	-10.4756
▁locaux	-10.4758
▁consisting	-10.4762
▁FR	-10.4762
▁ski	-10.4772
22	-10.4774
▁duration	-10.4776
▁autant	-10.4777
rov	-10.4777
▁arrangement	-10.4782
▁véritable	-10.4785
▁Education	-10.4786
chant	-10.4787
▁center	-10.4792
called	-10.4794
▁radiation	-10.4794
attention	-10.4799
accept	-10.4811
▁fondée	-10.4817
▁jouer	-10.4818
▁soon	-10.4819
▁provenant	-10.4823
▁refugee	-10.4828
▁affirm	-10.4835
▁equality	-10.4836
▁ship	-10.4837
▁cancer	-10.4838
▁substitut	-10.4841
▁préféré	-10.4841
▁awareness	-10.4844
électro	-10.4845
▁précisément	-10.4849
▁feel	-10.4849
▁brut	-10.485
▁arrive	-10.4853
▁apte	-10.4857
▁protéine	-10.4861
ajout	-10.4866
▁traite	-10.4867
▁Russie	-10.4868
▁72	-10.4868
introduction	-10.4879
▁résulte	-10.4885
▁illustrate	-10.489
▁maintenu	-10.489
expression	-10.4896
sida	-10.4901
ifie	-10.4904
▁−	-10.4907
▁lettre	-10.4913
enveloppe	-10.4913
antenne	-10.4916
accueil	-10.4919
▁47	-10.492
▁répartition	-10.492
▁gar	-10.4922
▁confront	-10.4923
▁intention	-10.4934
assemble	-10.4948
▁poll	-10.495
▁Health	-10.4958
governmental	-10.4959
occasion	-10.4963
▁San	-10.4973
▁registre	-10.4976
▁attack	-10.4977
attache	-10.4983
▁Declaration	-10.4983
oid	-10.4986
▁Déclaration	-10.4987
▁%)	-10.4989
▁homo	-10.4997
▁satisfaction	-10.5003
▁limiter	-10.5003
exclusion	-10.502
▁bâti	-10.5023
▁medical	-10.5024
▁réel	-10.5024
▁Research	-10.503
FIG	-10.503
▁émis	-10.5047
▁résidu	-10.505
making	-10.5052
▁coming	-10.5056
▁holding	-10.5063
▁sexual	-10.5063
▁fair	-10.507
▁logique	-10.5078
methyl	-10.508
▁incorporate	-10.5085
OH	-10.5086
▁incident	-10.5088
▁urbain	-10.5089
gene	-10.5093
harmoni	-10.5094
▁prestation	-10.5096
▁annulaire	-10.5102
▁profonde	-10.5103
▁largeur	-10.5103
▁send	-10.5107
▁Public	-10.5108
peptide	-10.5109
▁track	-10.5109
▁régionaux	-10.511
▁transverse	-10.5111
oïd	-10.5114
▁submit	-10.512
▁monétaire	-10.5122
▁employé	-10.5124
▁appliquer	-10.5134
ération	-10.5134
▁observer	-10.5135
inscrit	-10.5136
▁adéquat	-10.5143
«	-10.5143
▁coating	-10.5145
▁legislative	-10.5145
gress	-10.5146
▁suffer	-10.5149
▁Ceci	-10.5151
▁Ministre	-10.5153
assemblage	-10.5157
▁carrier	-10.5158
▁concert	-10.5162
▁mutual	-10.5164
▁vessel	-10.5166
van	-10.517
▁communities	-10.5171
ott	-10.5172
▁grille	-10.5176
ugh	-10.5177
▁récepteur	-10.5181
▁highly	-10.5185
çon	-10.5188
institution	-10.519
▁recommandé	-10.5193
▁thèse	-10.5196
▁annuel	-10.5198
▁annular	-10.5201
▁garde	-10.5204
▁aqueous	-10.5204
▁She	-10.5206
▁spécialisé	-10.5206
▁algorithm	-10.5206
▁industries	-10.5206
▁disposée	-10.5208
▁technologique	-10.5209
▁essentielle	-10.5213
avantage	-10.5213
▁informed	-10.5213
trans	-10.5215
▁confiance	-10.5215
▁challenge	-10.5219
▁suffisante	-10.522
▁rejet	-10.522
▁représentation	-10.5222
▁inclus	-10.5238
▁sel	-10.5239
▁défaut	-10.5243
▁campagne	-10.5244
▁traditional	-10.5246
▁sommet	-10.525
▁financé	-10.5254
méthyl	-10.5257
tenu	-10.5261
03	-10.5262
▁weak	-10.5263
▁understand	-10.5265
▁effectively	-10.5265
▁courbe	-10.5268
esprit	-10.527
light	-10.5271
▁Communication	-10.5275
▁(3)	-10.5277
▁powder	-10.5278
▁money	-10.5279
Israël	-10.5287
▁attached	-10.5288
▁critique	-10.5291
▁teneur	-10.5296
▁territory	-10.5301
▁discussed	-10.5303
Office	-10.5304
▁geo	-10.5306
essai	-10.5309
02	-10.5309
▁conçu	-10.5314
▁outlet	-10.5322
▁statistical	-10.5329
▁undertaken	-10.5333
activation	-10.5335
▁Haut	-10.5335
▁VIH	-10.5336
▁antenna	-10.5337
▁Second	-10.5339
morph	-10.534
▁milliards	-10.5341
45	-10.5342
▁frein	-10.5344
▁letter	-10.5346
▁pompe	-10.5354
▁Therefore	-10.5356
▁situated	-10.5361
▁57	-10.5363
▁enabling	-10.5376
alkyl	-10.5378
▁industriel	-10.5379
assi	-10.5379
▁démocratie	-10.5386
▁examiner	-10.5387
▁tard	-10.539
▁equivalent	-10.5392
▁fondamentaux	-10.5392
▁estimé	-10.5399
çant	-10.5401
communication	-10.5402
▁400	-10.5405
trait	-10.5409
Add	-10.541
standing	-10.5418
▁arabe	-10.542
▁éventuel	-10.542
capacit	-10.5428
▁demeure	-10.5429
ush	-10.5433
▁caused	-10.5437
▁facilities	-10.5439
▁manufacturing	-10.544
▁1989	-10.5441
tabilis	-10.5444
▁frais	-10.5448
▁Decision	-10.5449
▁undertaking	-10.5453
▁Global	-10.5456
▁seraient	-10.5461
▁ouverte	-10.5461
Etat	-10.5463
▁concentrate	-10.5466
▁crystal	-10.5469
▁package	-10.547
▁environnemental	-10.5479
▁bill	-10.5488
individu	-10.5489
offre	-10.549
▁talk	-10.5492
architecture	-10.55
▁optimal	-10.55
▁considerable	-10.5504
organisme	-10.551
▁stream	-10.5511
▁ajoute	-10.5511
▁Protocole	-10.5515
8%	-10.5516
EG	-10.5517
▁contribue	-10.5518
▁asked	-10.5519
adopter	-10.552
▁exempt	-10.552
▁difficulties	-10.5528
▁étudié	-10.5537
▁almost	-10.5537
▁reading	-10.5538
▁biologique	-10.5539
appareil	-10.554
▁déterminé	-10.5541
▁fonctionnaires	-10.5546
▁issued	-10.5549
▁emphasis	-10.5557
▁lever	-10.556
€	-10.5564
▁comparaison	-10.5565
▁entry	-10.5573
▁Cuba	-10.5575
▁judge	-10.5575
▁beginning	-10.5577
▁draw	-10.5578
27	-10.558
▁réussi	-10.558
▁transparence	-10.5581
▁prohibit	-10.5589
6%	-10.559
▁tank	-10.5596
installation	-10.5599
▁trafic	-10.56
▁width	-10.5604
▁procéder	-10.5607
▁diminution	-10.5608
▁vital	-10.5622
▁envisagé	-10.5623
89	-10.5624
▁understood	-10.5624
▁Imp	-10.5636
Ukraine	-10.5657
▁Trade	-10.566
▁expansion	-10.5661
▁Asia	-10.5663
▁diploma	-10.5667
28	-10.5669
éviter	-10.5673
▁récemment	-10.5673
▁crois	-10.5685
propri	-10.5685
2007	-10.5687
new	-10.5688
alk	-10.5692
▁matrix	-10.5692
▁butée	-10.5695
▁failure	-10.5695
▁medicine	-10.5698
▁advantageous	-10.5698
▁chemin	-10.57
Accord	-10.5706
▁comparison	-10.5708
▁intéressant	-10.5712
▁Of	-10.5712
▁basse	-10.5713
▁bond	-10.5717
plan	-10.5718
intervention	-10.5722
▁fermé	-10.5723
EU	-10.5725
autorisation	-10.5728
▁quatrième	-10.5729
▁solidaire	-10.5731
▁oscill	-10.5743
▁drogue	-10.5745
▁combined	-10.5749
▁psycho	-10.5751
amendement	-10.5752
▁quantity	-10.5753
▁fondamentale	-10.5759
▁cylindre	-10.5761
pyr	-10.5764
▁extended	-10.5767
▁generator	-10.5769
OU	-10.577
tron	-10.5771
aluminium	-10.5774
▁traffic	-10.5774
▁transversale	-10.5775
▁Agency	-10.5778
▁plastic	-10.5779
▁apporter	-10.5787
▁doute	-10.579
▁sport	-10.5794
▁notification	-10.5797
▁vert	-10.5803
▁détermination	-10.5804
▁displacement	-10.5809
▁sleeve	-10.5812
▁facing	-10.5815
▁recently	-10.582
▁involving	-10.5823
▁death	-10.5824
▁aérien	-10.5825
▁modulation	-10.5826
▁reconnaissance	-10.5827
Institut	-10.5828
▁guidage	-10.5829
▁armed	-10.583
▁102	-10.583
▁inverse	-10.5832
éliminer	-10.5833
▁croissant	-10.5837
▁municipal	-10.5844
▁divide	-10.5845
impression	-10.5847
▁composante	-10.5849
▁analogue	-10.5853
▁vary	-10.5853
auteur	-10.5856
▁Party	-10.5857
7%	-10.5867
▁Ph	-10.5871
▁Département	-10.5876
▁générateur	-10.5876
▁analog	-10.5877
▁consolidation	-10.5878
▁democratic	-10.5879
level	-10.5879
border	-10.588
▁locking	-10.589
▁disque	-10.5893
▁generated	-10.5899
examiner	-10.59
▁effectiveness	-10.5902
▁fermeture	-10.5904
▁pied	-10.5905
▁collection	-10.5906
▁dépasse	-10.5906
▁ferme	-10.5918
▁PRO	-10.5919
ö	-10.5922
4%	-10.5922
▁diminue	-10.5924
▁height	-10.5924
▁statistique	-10.5925
▁positif	-10.5926
▁conservation	-10.5927
▁largement	-10.5941
hold	-10.5943
▁detector	-10.5944
▁réalité	-10.5944
▁renforcé	-10.5944
▁institutionnel	-10.5947
▁servir	-10.5951
▁planification	-10.5951
▁cavity	-10.5951
▁directeur	-10.5954
▁désarmement	-10.5958
▁maximale	-10.5966
propyl	-10.5967
▁regret	-10.5973
▁marchandises	-10.5974
écran	-10.5978
▁appeal	-10.599
▁constituer	-10.5992
▁collègue	-10.5994
▁reconstruction	-10.5996
▁month	-10.6
apprentissage	-10.6
figure	-10.6006
▁division	-10.6008
▁pourcentage	-10.6008
▁médecin	-10.6009
▁compliance	-10.601
▁intégrée	-10.601
▁montrent	-10.6011
▁Depuis	-10.6011
▁things	-10.6026
▁recognition	-10.603
▁govern	-10.6031
▁allowed	-10.6034
▁actually	-10.6039
69	-10.6039
▁expect	-10.6041
▁expand	-10.6041
▁elastic	-10.6045
appliquer	-10.6045
▁auquel	-10.6045
▁linéaire	-10.6046
▁persist	-10.6059
▁stade	-10.6059
hydrogène	-10.6062
▁poudre	-10.6068
▁vide	-10.607
▁hors	-10.6072
▁provoque	-10.6073
▁eliminate	-10.6075
▁fruit	-10.6076
▁Traité	-10.6079
grade	-10.6079
▁puissent	-10.608
▁simultané	-10.6082
▁disposed	-10.6087
▁invité	-10.61
▁réparti	-10.6103
▁impossible	-10.6105
granul	-10.6107
▁push	-10.6112
▁concrète	-10.6112
▁build	-10.6126
aries	-10.6129
▁pure	-10.613
wide	-10.6135
pat	-10.6135
▁notably	-10.6147
ographic	-10.615
▁repose	-10.6156
char	-10.6165
▁comprennent	-10.6167
▁porté	-10.6172
▁error	-10.6178
obligation	-10.6182
économique	-10.619
▁really	-10.6192
▁transit	-10.6194
▁facteur	-10.6198
immigration	-10.6198
▁employed	-10.62
▁futur	-10.6201
▁discuss	-10.6203
▁discharge	-10.6207
migrant	-10.621
▁biais	-10.6211
▁augmenté	-10.6214
▁perpendiculaire	-10.6233
▁simultaneous	-10.6237
UT	-10.6239
▁excellent	-10.6247
▁equipped	-10.6248
▁slow	-10.6248
▁menées	-10.6248
dependent	-10.625
étudier	-10.6255
▁destination	-10.6261
▁dispersion	-10.6264
▁autochtones	-10.6268
injection	-10.6268
▁motion	-10.627
▁détecteur	-10.6271
▁neutral	-10.6276
▁gear	-10.6286
▁vocational	-10.629
▁blood	-10.6298
▁attempt	-10.63
▁extending	-10.6303
trop	-10.6305
▁simply	-10.6308
▁organized	-10.6308
▁classification	-10.6309
▁fraud	-10.6328
▁recovery	-10.6328
tric	-10.6328
▁simulation	-10.6339
▁granted	-10.6343
▁résoudre	-10.6346
▁slide	-10.6347
▁perpendicular	-10.6349
TION	-10.635
economic	-10.6355
▁substantial	-10.6356
▁évidence	-10.6358
▁ultérieur	-10.6362
▁turbine	-10.6362
▁consent	-10.6363
émo	-10.6364
▁quota	-10.6369
aison	-10.6372
▁précision	-10.6373
alcool	-10.6376
ethyl	-10.6378
▁Executive	-10.6381
▁reconnaît	-10.6386
▁guidance	-10.639
culaire	-10.639
▁governance	-10.6395
▁baisse	-10.6397
▁supplement	-10.6399
▁happen	-10.6401
▁protocol	-10.6401
▁generation	-10.6412
▁présentation	-10.642
parle	-10.6424
▁August	-10.6427
▁fédéral	-10.643
▁10%	-10.6432
▁candidate	-10.6435
work	-10.6436
pour	-10.6438
▁équipé	-10.644
éclair	-10.6445
▁sound	-10.6447
year	-10.6448
▁fabric	-10.6449
▁insist	-10.6449
▁Rapport	-10.6453
▁corruption	-10.6457
▁travailler	-10.6468
existe	-10.6469
▁skin	-10.6477
▁salt	-10.6478
▁Greece	-10.6484
▁commissaire	-10.6487
▁montage	-10.6487
WP	-10.6495
▁percentage	-10.6495
▁giving	-10.6497
typ	-10.6502
▁depending	-10.6503
▁loin	-10.6506
▁fais	-10.6508
dependence	-10.6509
▁deep	-10.651
▁try	-10.652
éthyl	-10.6527
mot	-10.6529
▁chaleur	-10.653
▁continent	-10.6531
▁employees	-10.6532
▁religion	-10.6533
▁bague	-10.6538
▁poursuite	-10.6541
▁SMEs	-10.6544
▁génération	-10.6545
▁bac	-10.6547
▁linear	-10.655
▁convey	-10.6551
èse	-10.6552
▁barrier	-10.6558
▁produire	-10.6562
shed	-10.6565
impl	-10.6572
▁résine	-10.6573
▁suffi	-10.6573
▁representation	-10.6575
▁préparé	-10.6578
▁territorial	-10.6579
oppose	-10.659
with	-10.6595
▁Secrétariat	-10.6598
▁concrete	-10.6601
▁female	-10.6604
sistance	-10.6604
▁dossier	-10.6607
▁signifie	-10.6608
▁1988	-10.661
▁flat	-10.6612
▁séparation	-10.6615
▁Règlement	-10.6617
source	-10.662
▁propriété	-10.6629
▁platform	-10.6636
emplacement	-10.6644
▁withdraw	-10.6649
▁selection	-10.6649
▁Non	-10.6651
▁modalités	-10.6661
▁inhibit	-10.6669
▁cooling	-10.6671
▁Russian	-10.6675
▁drawn	-10.6677
▁roller	-10.6684
▁box	-10.6686
▁attitude	-10.6692
enregistrement	-10.6694
▁supplied	-10.6695
▁families	-10.6701
▁simplement	-10.6705
▁growing	-10.6706
▁recommandation	-10.6707
▁comparable	-10.6707
harmonisation	-10.6719
▁désir	-10.673
▁officielle	-10.6732
▁obligatoire	-10.6741
▁périodique	-10.6746
▁silicium	-10.6749
▁possède	-10.6751
▁driving	-10.6755
sorb	-10.6764
change	-10.6764
▁resin	-10.6765
▁récente	-10.6765
▁competent	-10.6771
symmetr	-10.6772
phosph	-10.6783
illé	-10.6785
▁Policy	-10.6787
▁generate	-10.6787
argent	-10.6789
▁suspend	-10.6791
▁mold	-10.6797
range	-10.6798
intensité	-10.6807
▁civilian	-10.6811
▁précité	-10.6812
▁provisoire	-10.6816
▁estimate	-10.6821
▁pig	-10.6827
▁bénéficier	-10.6831
▁convenu	-10.6831
gram	-10.6836
▁fortement	-10.6838
▁Conformément	-10.6838
étanchéité	-10.6841
▁diversité	-10.6842
▁students	-10.6843
▁hot	-10.6854
▁donor	-10.6866
énoncé	-10.6868
▁Summit	-10.6871
▁commis	-10.6885
▁concluded	-10.6886
▁relief	-10.6886
▁maintained	-10.6888
▁significantly	-10.6895
▁compétitivité	-10.6895
▁2020	-10.6908
▁renseignements	-10.6913
▁Timor	-10.6922
▁York	-10.6923
▁fourth	-10.693
firm	-10.6933
▁Grèce	-10.6942
▁amendements	-10.6953
▁German	-10.6957
Asie	-10.6962
soluble	-10.6962
▁earlier	-10.6966
▁catastrophe	-10.6969
▁evaluate	-10.6984
culture	-10.6986
▁Vice	-10.699
▁patent	-10.6995
▁completed	-10.6997
effort	-10.6997
▁clean	-10.6999
▁veut	-10.6999
▁récipient	-10.7003
▁rendement	-10.7011
▁creating	-10.7017
▁species	-10.7023
▁indigenous	-10.7028
▁whereas	-10.7028
▁contrast	-10.7034
▁transparency	-10.7039
atelier	-10.7041
kin	-10.705
▁Chairman	-10.7051
▁democracy	-10.7051
▁recommend	-10.7055
group	-10.7056
▁resource	-10.7058
▁rien	-10.707
▁Pat	-10.7076
▁textile	-10.7076
▁résultant	-10.7081
inflation	-10.7082
▁emerge	-10.7083
▁tribunal	-10.7084
ING	-10.7084
UL	-10.7086
▁propagation	-10.7087
articulation	-10.7088
▁revêtement	-10.7089
▁Over	-10.7098
east	-10.7098
▁synthèse	-10.71
▁fournit	-10.7102
▁House	-10.7108
▁recommande	-10.7108
espère	-10.7111
▁Where	-10.7113
cycle	-10.7116
▁navire	-10.7119
aéronef	-10.7134
▁déployé	-10.7134
central	-10.7138
▁assez	-10.714
▁équivalent	-10.7143
▁easily	-10.7144
▁explicit	-10.7144
▁slot	-10.7145
▁apparent	-10.7155
▁Représentant	-10.7155
▁distributed	-10.7159
▁50%	-10.7161
▁applies	-10.7167
▁characteristic	-10.7175
▁completely	-10.7176
▁cohésion	-10.7176
á	-10.7177
▁numéro	-10.7177
▁answer	-10.7181
▁devra	-10.7182
▁Parmi	-10.7191
▁System	-10.7193
▁predetermined	-10.7208
▁migrants	-10.7217
▁scolaire	-10.7218
▁convergence	-10.7219
▁Protection	-10.7222
▁implant	-10.7222
▁approfondi	-10.7223
▁informé	-10.7224
▁rencontre	-10.7234
▁estimated	-10.7235
absorption	-10.7236
▁constaté	-10.7237
▁vend	-10.7239
▁obtient	-10.7239
EUR	-10.7241
▁compétence	-10.7246
issé	-10.725
▁règle	-10.7265
code	-10.7266
▁gouvernance	-10.727
▁indicateurs	-10.7273
▁workshop	-10.7276
▁riche	-10.7277
programme	-10.7284
▁temporaire	-10.7285
▁trafficking	-10.7291
▁Preferably	-10.7293
▁Austria	-10.7296
▁immediately	-10.7296
▁systématique	-10.7298
▁rayonnement	-10.7299
▁campaign	-10.7305
intervalle	-10.7306
▁thread	-10.7307
africain	-10.7309
entraînement	-10.732
▁brief	-10.7323
▁aqueuse	-10.7326
▁neuro	-10.7329
▁combustible	-10.7332
▁enforcement	-10.7332
▁flange	-10.7336
▁visual	-10.7337
▁excessive	-10.7343
▁update	-10.7345
▁échéant	-10.7346
after	-10.7348
▁élections	-10.7352
▁fourniture	-10.7355
▁something	-10.7359
▁mettant	-10.7359
▁moitié	-10.7369
imagin	-10.7384
▁disadvantage	-10.7384
dimension	-10.7388
́	-10.7394
▁window	-10.7398
▁Japon	-10.7403
▁gens	-10.7408
émetteur	-10.7418
▁voyage	-10.742
▁prolonge	-10.7421
▁probable	-10.7423
1999	-10.743
▁pouvons	-10.7438
diction	-10.744
▁désigné	-10.7446
achat	-10.7458
▁Belgium	-10.7462
▁Pakistan	-10.7464
▁schematic	-10.7464
▁magnet	-10.7469
▁profession	-10.7488
▁passant	-10.7492
association	-10.7495
▁raise	-10.7496
▁amélioré	-10.7501
▁refroidissement	-10.7507
▁significative	-10.7514
▁applicant	-10.7518
▁Institute	-10.7521
▁exhaust	-10.7522
9%	-10.7539
▁insurance	-10.7539
▁stored	-10.7542
▁tenant	-10.7545
▁spread	-10.7546
▁learn	-10.7546
▁strength	-10.7546
▁périphérique	-10.7553
▁room	-10.7553
▁prospect	-10.7554
▁achieving	-10.7557
▁livre	-10.7559
▁regulatory	-10.7564
▁salaire	-10.7565
▁Advantageously	-10.7579
▁connector	-10.7581
▁recommendation	-10.759
▁stakeholders	-10.759
▁actuator	-10.7595
▁producing	-10.7595
▁prévenir	-10.7613
▁modified	-10.7616
▁passing	-10.7625
▁immédiatement	-10.7629
▁pénal	-10.7636
▁plateau	-10.7639
▁disponible	-10.7639
■	-10.7644
▁justifie	-10.7649
▁désormais	-10.7651
▁parfois	-10.7653
ham	-10.7653
▁volet	-10.7665
·	-10.7666
▁Avantageusement	-10.7669
élargissement	-10.7669
copie	-10.767
▁database	-10.7679
▁round	-10.7687
head	-10.7688
▁determining	-10.7698
▁separation	-10.77
▁usually	-10.7706
▁clause	-10.7707
ographie	-10.7712
▁Foreign	-10.7713
▁réflexion	-10.7713
▁médias	-10.7715
50°	-10.7722
▁alcohol	-10.7725
got	-10.7725
avion	-10.7735
▁recognized	-10.7742
▁genre	-10.7745
▁silica	-10.7747
▁peripheral	-10.7761
▁involvement	-10.7761
▁partiellement	-10.7762
▁virtue	-10.778
ethylene	-10.778
adapt	-10.7781
▁combinaison	-10.7786
▁bruit	-10.7787
▁judicial	-10.7789
▁Cooperation	-10.7796
▁noise	-10.7801
▁1986	-10.7812
▁moral	-10.7813
dict	-10.7816
▁vector	-10.7826
▁étrangers	-10.783
▁India	-10.7833
like	-10.7835
▁remarque	-10.7837
▁2011	-10.7837
▁volontaire	-10.7843
▁People	-10.7844
▁offence	-10.7847
▁automobile	-10.7847
▁préférentielle	-10.7853
▁climat	-10.7854
▁Regional	-10.7856
▁écoles	-10.786
▁essais	-10.786
▁ratification	-10.7862
piece	-10.787
▁technological	-10.788
▁géographique	-10.7883
▁focal	-10.7884
▁revêt	-10.7885
▁doctor	-10.7885
▁auxquels	-10.7886
▁multiplex	-10.7888
▁Belgique	-10.7898
▁From	-10.7899
exercer	-10.7902
▁calculated	-10.7902
▁illegal	-10.791
▁cooperate	-10.7911
TER	-10.7916
▁panneau	-10.7916
▁plastique	-10.7918
appuyer	-10.7918
▁surround	-10.7919
▁communiqué	-10.7921
▁touche	-10.7924
▁indeed	-10.7926
▁législative	-10.7928
TRA	-10.7929
▁mobilité	-10.7932
▁compare	-10.7936
icide	-10.794
▁Joint	-10.7941
responsibilities	-10.7944
▁aware	-10.7944
▁licence	-10.7964
▁loop	-10.7977
▁household	-10.7977
▁coordonné	-10.7992
▁Commissaire	-10.7998
▁virus	-10.7998
▁derivative	-10.7999
▁implications	-10.8004
▁conserve	-10.8004
valent	-10.8005
▁lesdits	-10.8014
▁angulaire	-10.8024
▁emergency	-10.8025
▁1987	-10.8029
▁Sweden	-10.8029
▁utilisateurs	-10.803
▁culturelle	-10.8035
toire	-10.8039
▁Federation	-10.8053
▁Work	-10.8055
▁vecteur	-10.8061
▁epi	-10.8061
issage	-10.8062
▁introduce	-10.8064
▁GDP	-10.8066
▁révision	-10.8076
▁supp	-10.808
Agence	-10.8086
▁ministère	-10.8091
▁decide	-10.8092
logical	-10.8099
▁investi	-10.81
▁Indeed	-10.8101
▁1985	-10.8105
région	-10.8108
▁UK	-10.8112
▁mauvais	-10.8117
▁Turkey	-10.8122
ailleurs	-10.8124
▁yield	-10.8128
œuvre	-10.8128
▁bois	-10.813
▁competitiveness	-10.8134
▁pursuant	-10.8135
▁chaud	-10.815
interdiction	-10.8151
▁prédéterminé	-10.8158
▁qualifié	-10.8161
▁pain	-10.8163
▁implique	-10.8168
▁affecté	-10.8171
▁verrouillage	-10.8176
▁imposé	-10.8178
▁delivery	-10.8182
▁downstream	-10.8188
▁declaration	-10.8194
▁tronçon	-10.8195
▁chercheurs	-10.8199
▁Framework	-10.8205
▁assets	-10.8207
▁settlement	-10.8208
COM	-10.8218
▁slightly	-10.8246
▁prepare	-10.8246
▁sexuelle	-10.8249
▁multilateral	-10.8257
▁bound	-10.8265
▁succ	-10.8267
▁alone	-10.8269
encies	-10.827
▁ongoing	-10.8271
▁réglage	-10.8272
gression	-10.8274
instrument	-10.8278
droit	-10.8281
▁pluralité	-10.8281
▁true	-10.8286
▁tonnes	-10.8287
▁bureaux	-10.8288
▁filles	-10.831
▁identifier	-10.8311
▁lourd	-10.8318
▁couvert	-10.8323
horloge	-10.8324
▁cutting	-10.8324
▁connaître	-10.8326
▁déformation	-10.8329
▁accordée	-10.833
▁trace	-10.8331
▁participe	-10.8332
étranger	-10.8335
▁Democratic	-10.8337
▁behaviour	-10.8347
▁distinction	-10.8354
▁agencé	-10.8357
éthylène	-10.836
▁vibration	-10.8382
▁extrêmement	-10.8394
enzyme	-10.8398
▁controlling	-10.8403
histoire	-10.8406
▁Also	-10.841
▁exhibit	-10.8411
école	-10.8424
▁logic	-10.8425
▁bénéfice	-10.8429
▁amplifier	-10.8431
▁PIB	-10.8434
évolu	-10.8442
▁possess	-10.8446
▁juridiction	-10.8452
>	-10.8453
▁racism	-10.8454
▁else	-10.8458
▁except	-10.8463
▁identifié	-10.8463
issue	-10.8465
▁approval	-10.8467
▁foot	-10.8468
▁resolve	-10.8471
▁eye	-10.8474
▁despite	-10.8476
▁batterie	-10.8492
▁hybrid	-10.8495
▁1980	-10.85
▁retenue	-10.8506
▁hypo	-10.8508
▁logiciel	-10.8508
▁mobility	-10.8509
▁paquet	-10.8513
▁cristal	-10.8516
▁déplacé	-10.8519
self	-10.8533
▁quasi	-10.8536
▁zero	-10.8537
▁Denmark	-10.8541
▁densité	-10.8541
ogène	-10.8543
▁négative	-10.8543
▁suppose	-10.8545
▁Suède	-10.855
shaped	-10.8561
▁noeud	-10.8563
▁software	-10.858
▁disaster	-10.8583
▁complementary	-10.8591
▁universel	-10.8601
▁economies	-10.8604
▁boucle	-10.8605
▁Management	-10.8611
▁fitted	-10.8611
▁vérification	-10.8615
logique	-10.8631
▁universal	-10.8632
▁reserve	-10.8633
uck	-10.8634
▁angular	-10.8636
▁safe	-10.8638
▁enjoy	-10.864
▁absolute	-10.865
▁secret	-10.866
électricité	-10.8663
▁satisfaisant	-10.8664
##	-10.8668
▁binding	-10.8668
pprovisionnement	-10.8674
▁extrait	-10.8676
▁upstream	-10.8678
▁hyper	-10.869
▁contest	-10.8692
entretien	-10.8703
▁Turquie	-10.8704
conductrice	-10.8714
▁circular	-10.8721
patri	-10.8726
amplificateur	-10.8727
▁désigne	-10.8729
▁conductive	-10.873
▁entraîné	-10.8739
▁predict	-10.8744
▁animaux	-10.8745
méri	-10.8756
▁Criminal	-10.8757
▁integral	-10.8767
infrastructure	-10.8776
▁devait	-10.8783
▁isolant	-10.8785
▁levier	-10.8787
▁bénéficiaire	-10.8789
▁UNDP	-10.879
▁hydrocarbon	-10.8798
script	-10.8802
▁Danemark	-10.8803
where	-10.8814
▁nouvel	-10.8815
▁circulaire	-10.882
▁molécule	-10.8821
▁house	-10.8823
▁révél	-10.8823
▁allemand	-10.8827
admission	-10.8831
fluoro	-10.884
▁temporary	-10.8845
▁entier	-10.8846
▁writing	-10.8853
▁soutenu	-10.8859
alinéa	-10.8866
▁acquire	-10.8868
▁participé	-10.8881
▁bilateral	-10.8882
▁parliament	-10.8882
carbon	-10.8893
Initiative	-10.89
▁coopérer	-10.8905
▁couleur	-10.8906
▁pneumatique	-10.8913
▁élémentaire	-10.8919
▁remote	-10.8921
▁proceed	-10.8924
▁deposited	-10.893
▁navigation	-10.893
▁ça	-10.8934
▁Federal	-10.8937
charge	-10.8937
▁Sommet	-10.8938
▁district	-10.8939
▁peacekeeping	-10.8939
▁Avec	-10.8948
operative	-10.8952
▁pursue	-10.8953
▁studied	-10.896
▁vingt	-10.8965
▁admis	-10.8965
▁leaders	-10.8966
▁sentence	-10.8976
▁movable	-10.8977
▁Millennium	-10.8988
▁effectuer	-10.899
▁friction	-10.8994
▁auteurs	-10.8995
▁examination	-10.8997
▁détenu	-10.9
▁individuelle	-10.9021
omy	-10.9027
▁AND	-10.9027
▁capture	-10.9027
▁severe	-10.9029
▁Children	-10.905
empêcher	-10.905
▁médical	-10.9052
▁pauvres	-10.9053
▁Brussels	-10.9054
aître	-10.9057
▁occupé	-10.9063
▁ethnic	-10.9066
▁chapter	-10.907
exposition	-10.9071
▁démarche	-10.9081
▁oxygen	-10.9083
▁Further	-10.9089
▁chauffage	-10.9089
▁skilled	-10.9093
▁density	-10.9095
▁written	-10.9097
▁begin	-10.9102
▁fréquent	-10.9105
spoke	-10.9105
▁vapeur	-10.9106
▁girls	-10.9109
▁actors	-10.9116
▁comprimé	-10.9116
Mediterranean	-10.9129
▁décharge	-10.9131
▁réglementaire	-10.9135
▁africaine	-10.9141
▁Bruxelles	-10.9145
▁officiel	-10.915
▁Sierra	-10.9157
organiser	-10.9165
▁rainure	-10.9173
encontre	-10.9173
▁tubulaire	-10.9175
▁nozzle	-10.9177
aucun	-10.9178
▁Fédération	-10.9179
body	-10.9182
▁regulate	-10.9185
identité	-10.9191
▁contour	-10.9219
▁chromatograph	-10.9219
▁PNUD	-10.9221
▁video	-10.9222
▁bascule	-10.923
anneau	-10.923
▁Presidency	-10.924
▁Advisory	-10.9251
▁molecule	-10.9251
▁sûreté	-10.9253
▁clinique	-10.9254
▁easy	-10.9259
▁manchon	-10.9265
▁Dispositif	-10.9273
▁instead	-10.9276
ajustement	-10.9277
▁Meeting	-10.9279
▁reveal	-10.928
mentioned	-10.9281
▁manuel	-10.9282
▁complaint	-10.9297
▁composed	-10.9297
▁voulu	-10.9301
▁safeguard	-10.9303
▁orienté	-10.9306
▁preparing	-10.9306
▁régulation	-10.9309
▁questionnaire	-10.931
▁bobine	-10.9317
path	-10.9318
▁vaste	-10.9319
observa	-10.9329
▁bénéficie	-10.9336
▁répét	-10.9336
escence	-10.934
▁endorse	-10.9343
▁figurant	-10.9344
▁Support	-10.9347
▁équipements	-10.9349
▁fixing	-10.9351
▁possibly	-10.9356
▁immediate	-10.9356
▁annuelle	-10.936
▁quarter	-10.9364
▁entities	-10.9365
▁administratif	-10.9374
▁categories	-10.9374
▁tubular	-10.9376
ordinateur	-10.9391
▁équitable	-10.9391
▁competitive	-10.9397
ä	-10.9402
éthanol	-10.9412
▁dispute	-10.9414
▁electricity	-10.9414
▁espèces	-10.9415
▁province	-10.942
▁observe	-10.9423
▁dirigé	-10.9437
Autriche	-10.9442
▁familiale	-10.9446
▁differ	-10.9451
▁numerous	-10.9455
▁confidence	-10.9457
▁residue	-10.9457
▁recruit	-10.9459
▁department	-10.946
▁revised	-10.946
▁decline	-10.9464
▁voix	-10.9467
▁history	-10.9467
▁planned	-10.9475
▁Energy	-10.9486
▁detected	-10.9486
▁devront	-10.9487
▁cohérent	-10.9497
▁Millénaire	-10.9498
▁specified	-10.9502
▁customs	-10.9508
▁innovative	-10.9514
▁élargi	-10.9523
▁boîte	-10.9525
▁envoyé	-10.9533
▁North	-10.955
▁frequent	-10.9551
▁obstacle	-10.9554
habilitation	-10.9567
▁opposition	-10.9568
▁flexibility	-10.957
▁malgré	-10.9576
▁burden	-10.9577
▁offset	-10.9578
registr	-10.9584
▁dommage	-10.9585
exportation	-10.9585
immobili	-10.9594
▁temporel	-10.9598
▁Two	-10.9599
▁investigate	-10.9602
▁transnational	-10.9606
▁exercé	-10.9613
▁please	-10.9613
▁passenger	-10.9616
prolifération	-10.9617
écoulement	-10.962
▁rubrique	-10.9621
▁faudrait	-10.9622
oxygène	-10.9626
▁prochain	-10.9638
▁reçoit	-10.9639
▁Permanent	-10.9645
▁nitrogen	-10.9649
interprétation	-10.9656
▁insulating	-10.9658
interface	-10.966
▁plainte	-10.9668
ü	-10.9673
▁déclare	-10.9675
▁filtration	-10.9676
▁Peace	-10.9676
▁Strategy	-10.9677
Administration	-10.9682
▁determination	-10.9683
▁clamp	-10.9684
▁donateurs	-10.9686
crypt	-10.9689
▁recognise	-10.9691
▁disarmament	-10.9694
indicateur	-10.9701
▁plot	-10.9701
▁législatif	-10.9708
▁exportations	-10.9718
ethane	-10.9719
ffi	-10.9723
▁jurisdiction	-10.9724
▁emphasize	-10.9744
▁réactionnel	-10.9744
▁protégé	-10.9749
▁Civil	-10.9756
▁daily	-10.9759
azote	-10.9761
▁biological	-10.9764
▁marqué	-10.9765
▁vulnerable	-10.9766
▁virtual	-10.9768
▁quoi	-10.9782
▁voluntary	-10.9785
TRANS	-10.9786
▁relie	-10.9791
▁ambiante	-10.9793
important	-10.9802
petit	-10.9803
PPE	-10.9812
▁ethnique	-10.9816
▁ONG	-10.9817
▁nominal	-10.9832
▁Market	-10.9841
▁exposure	-10.9856
▁circonstances	-10.9863
2008	-10.9869
présent	-10.9875
▁reservoir	-10.9884
▁rational	-10.9885
▁sometimes	-10.9886
attente	-10.9887
gouvernemental	-10.9891
▁cohesion	-10.9895
▁supervision	-10.9897
▁Following	-10.9903
▁marginal	-10.9903
▁recouvre	-10.9906
système	-10.9909
▁Panel	-10.9914
▁couvercle	-10.992
▁arrest	-10.9921
▁capacitor	-10.9921
▁optionally	-10.9929
▁hydraulique	-10.9933
▁pouvait	-10.9936
STR	-10.9954
espèce	-10.9955
<	-10.9961
▁Rwanda	-10.9963
▁déficit	-10.9976
obtention	-10.9995
▁Consequently	-10.9999
▁mutuelle	-10.9999
▁sensibilisation	-11.0005
▁citoyen	-11.0012
▁adolescents	-11.0019
numér	-11.0034
▁Transport	-11.0049
▁vidéo	-11.0055
indépendance	-11.0055
▁defining	-11.0063
▁honour	-11.0063
®	-11.0075
▁NGOs	-11.0077
▁spirit	-11.008
nuclé	-11.0082
▁parlementaire	-11.0085
▁poursuivi	-11.0092
▁robot	-11.0093
▁tribunaux	-11.0103
encourager	-11.0103
affichage	-11.0105
▁vanne	-11.0112
excitation	-11.0112
▁commerciaux	-11.0113
▁behind	-11.0119
▁expertise	-11.012
▁commencé	-11.012
▁traditionnelle	-11.0129
▁overcome	-11.0135
▁silice	-11.0137
importation	-11.0144
œ	-11.0145
▁couplage	-11.0147
▁obvious	-11.0148
▁fenêtre	-11.0158
▁suffisant	-11.0164
Orient	-11.0177
▁University	-11.0179
aiguille	-11.0185
▁vivant	-11.0191
▁citizen	-11.0194
▁traduit	-11.0194
▁isolé	-11.0201
▁événements	-11.0206
▁cathode	-11.021
▁néanmoins	-11.0212
▁choc	-11.0221
▁village	-11.0224
▁multilatéral	-11.0224
▁chloride	-11.023
▁connecteur	-11.0232
▁entités	-11.0237
▁Nevertheless	-11.0237
▁monnaie	-11.024
▁mixed	-11.024
▁métier	-11.0246
▁monetary	-11.025
▁entrepris	-11.0259
▁registration	-11.0263
▁généraux	-11.0265
▁induce	-11.027
í	-11.0271
introduire	-11.0272
▁announce	-11.0273
▁sélectionné	-11.0277
▁Process	-11.0278
octroi	-11.0281
2009	-11.0289
▁conscience	-11.0289
▁papier	-11.0295
▁assurant	-11.03
▁doigt	-11.0306
▁dirigeants	-11.0308
▁vérin	-11.0308
second	-11.0309
▁duquel	-11.0313
▁category	-11.0327
▁Romania	-11.0327
▁competence	-11.0335
▁Korea	-11.0341
▁combine	-11.0344
▁hydraulic	-11.0348
▁intensity	-11.0348
▁séminaire	-11.0364
▁vacuum	-11.0366
▁généré	-11.0366
▁green	-11.0377
▁inconvénients	-11.0385
▁négociation	-11.0404
▁Plusieurs	-11.0411
▁hausse	-11.0413
▁capitaux	-11.0423
▁rouleau	-11.0426
échelon	-11.0429
quality	-11.0442
aspiration	-11.0448
▁révisé	-11.045
▁télécommunica	-11.0452
▁iron	-11.0452
▁hospital	-11.0457
▁revanche	-11.0457
▁évalué	-11.0459
▁preceding	-11.047
▁israélien	-11.0499
▁proximité	-11.0506
▁Child	-11.0507
▁background	-11.051
▁remédier	-11.0518
▁évident	-11.0524
▁délivré	-11.0527
▁recueilli	-11.053
▁adressée	-11.054
▁pourvu	-11.0541
▁displaced	-11.0549
▁gauche	-11.0551
▁doubt	-11.056
▁explore	-11.0563
▁administer	-11.0566
▁prescription	-11.0572
▁gradual	-11.0572
▁identity	-11.0578
▁Employment	-11.0579
▁cinquante	-11.0581
▁resident	-11.0582
▁longtemps	-11.059
▁drawback	-11.0593
▁compréhension	-11.06
▁déroule	-11.0601
▁coulisse	-11.0601
▁carburant	-11.0602
tergovernmental	-11.0606
▁immédiat	-11.0612
exprimer	-11.0632
▁résolu	-11.0634
▁étendu	-11.0638
control	-11.0647
regional	-11.065
▁evolution	-11.0653
▁Gaza	-11.0656
▁gamme	-11.0665
▁insuffisant	-11.0667
▁exécutif	-11.067
▁autonome	-11.0671
▁advice	-11.0674
▁clinical	-11.0681
▁Green	-11.0684
▁sought	-11.0693
accompagne	-11.0697
▁solidarité	-11.07
▁constructive	-11.0715
▁forêts	-11.0722
▁appartenant	-11.0726
▁changing	-11.0729
interrupteur	-11.0746
éthane	-11.0749
▁trust	-11.0749
▁lentille	-11.075
▁quickly	-11.075
▁plénière	-11.0753
▁concentré	-11.0754
▁allocated	-11.0766
▁compartment	-11.0772
accroissement	-11.0784
`	-11.0788
▁Spanish	-11.079
▁oblige	-11.0791
▁recettes	-11.0792
▁simplification	-11.0793
▁derived	-11.0796
▁contribué	-11.0796
▁liberal	-11.0801
▁déclenche	-11.0805
▁hollow	-11.081
▁arise	-11.0812
▁Document	-11.0815
▁Grâce	-11.0819
▁auxquelles	-11.0825
▁quantitative	-11.0828
ó	-11.0833
▁programmation	-11.0842
emballage	-11.0843
sumption	-11.0852
▁trigger	-11.0858
▁régler	-11.0859
▁execution	-11.0862
▁impliqué	-11.0865
▁ordinaire	-11.0872
▁Eurostat	-11.0877
acrylate	-11.0879
▁structurels	-11.088
▁Czech	-11.0884
▁floor	-11.089
▁minorités	-11.0891
▁presque	-11.0892
▁rencontré	-11.0898
▁calcium	-11.0904
▁Financial	-11.0937
▁wavelength	-11.0946
▁closing	-11.0949
▁sauf	-11.095
▁jugé	-11.095
▁moindre	-11.0957
▁comparative	-11.0971
▁volatil	-11.0976
▁acknowledge	-11.0979
▁couvre	-11.0993
▁froid	-11.0999
▁individuel	-11.1011
▁anticip	-11.1012
▁enclosure	-11.1013
▁reverse	-11.1017
▁Those	-11.1023
▁consequently	-11.1035
▁sliding	-11.1048
associe	-11.1049
▁remplacé	-11.1054
▁synthesis	-11.1054
▁reconnais	-11.1057
▁cohérence	-11.1068
▁participant	-11.107
▁seminar	-11.1084
▁nickel	-11.1089
▁modify	-11.1109
▁fente	-11.1111
▁négatif	-11.1111
▁preliminary	-11.1112
▁religious	-11.1112
▁noyau	-11.1114
▁phenomenon	-11.1115
▁defence	-11.112
▁retrouve	-11.112
▁intégral	-11.1121
hypothèse	-11.1144
▁combiné	-11.1152
qualifi	-11.1156
▁atmosphere	-11.116
▁vérifier	-11.1161
▁leadership	-11.1169
▁defend	-11.1171
▁adverse	-11.1171
▁Geneva	-11.1173
▁Authority	-11.1182
▁heavy	-11.1184
▁servant	-11.1199
▁spectral	-11.1209
▁espagnol	-11.1212
condensat	-11.1213
▁intensif	-11.1217
▁considérer	-11.1219
▁sanitaire	-11.1229
▁bridge	-11.123
▁removal	-11.123
▁palier	-11.1231
▁mask	-11.1244
▁gentlemen	-11.1249
▁requête	-11.1251
▁réalise	-11.1261
▁détecter	-11.1264
▁enlargement	-11.1267
▁procès	-11.1269
▁communicate	-11.1273
▁étudiants	-11.1275
isolation	-11.1284
▁schedule	-11.1296
▁coaxial	-11.1298
▁Yugoslav	-11.1301
▁Pologne	-11.1302
▁Burundi	-11.1306
▁discipline	-11.1306
▁siècle	-11.1306
▁dégradation	-11.1307
▁president	-11.1338
▁supplies	-11.1343
▁reprend	-11.1348
butyl	-11.1355
▁dominant	-11.1356
▁capsule	-11.1359
▁populaire	-11.1362
▁random	-11.1364
▁théorique	-11.1369
▁discontinu	-11.137
▁connais	-11.1376
▁Eastern	-11.1379
▁fisheries	-11.138
armature	-11.1381
▁historique	-11.139
▁nutrition	-11.1391
▁battery	-11.1395
atmosphère	-11.1401
▁Genève	-11.1403
▁fondamental	-11.1411
λ	-11.1432
▁Expert	-11.1445
▁Européen	-11.1447
▁requérant	-11.1457
horizon	-11.1457
▁connaît	-11.1463
▁vulnérables	-11.1463
▁spectro	-11.1465
▁copolymer	-11.1467
▁recognize	-11.147
▁bancaire	-11.1473
▁rupture	-11.1485
▁concours	-11.149
IQUE	-11.1495
▁geographical	-11.1498
▁gorge	-11.1498
▁avantageuse	-11.1503
▁détermine	-11.1504
▁Néanmoins	-11.1506
▁asylum	-11.1509
▁Budget	-11.1513
équation	-11.1515
▁mixte	-11.1516
▁Statut	-11.1524
▁Among	-11.1529
▁diagnostic	-11.1534
▁évoqué	-11.1539
▁commutation	-11.1547
▁reiterate	-11.1549
▁teaching	-11.1552
▁extensive	-11.1562
▁lesdites	-11.1568
▁écologique	-11.1568
▁closure	-11.157
▁tranche	-11.1571
▁primarily	-11.1579
▁accurate	-11.1585
▁saillie	-11.1594
▁becoming	-11.1611
▁spectre	-11.1613
▁deficit	-11.1617
▁pacifique	-11.162
▁couronne	-11.1629
opinion	-11.163
▁tchèque	-11.1635
▁Because	-11.1647
▁participating	-11.165
▁renouvelable	-11.1662
▁préoccupé	-11.1669
influence	-11.1675
▁substantive	-11.1682
▁capacities	-11.1694
▁Review	-11.1695
▁Aucun	-11.1697
▁currency	-11.1699
▁libération	-11.1701
▁pharmaco	-11.1711
▁mirror	-11.1716
proliferation	-11.1719
ographique	-11.172
▁critère	-11.1721
▁pétrole	-11.1722
▁quotidien	-11.1726
▁remplacer	-11.1729
▁avantageux	-11.1743
û	-11.1749
incidence	-11.175
▁dispense	-11.1753
▁suppression	-11.1754
▁prennent	-11.1761
▁satisfactory	-11.1763
▁britannique	-11.1771
▁complément	-11.1775
▁buffer	-11.179
▁hetero	-11.1803
▁occupe	-11.1807
▁Norway	-11.1809
▁picture	-11.1819
orifice	-11.1831
▁journalist	-11.1836
▁solidarity	-11.1846
▁constituting	-11.1853
▁belt	-11.1859
▁lift	-11.1859
▁straight	-11.1865
▁étanche	-11.188
▁alimenté	-11.1886
▁descend	-11.1887
▁introducing	-11.1889
▁Operation	-11.1896
▁pyro	-11.1913
▁Given	-11.1925
inclure	-11.1926
▁ICT	-11.1932
▁telephone	-11.1947
▁Russia	-11.1947
×	-11.195
▁Brazil	-11.1961
▁contingent	-11.1968
▁emerging	-11.1969
▁témoin	-11.1969
▁tampon	-11.1985
▁résident	-11.1993
▁extraordinaire	-11.1999
▁website	-11.2
θ	-11.2002
atteindre	-11.2005
▁fifty	-11.2007
ography	-11.2008
▁necessarily	-11.2009
▁Training	-11.2011
which	-11.2019
▁Third	-11.2019
▁Italian	-11.2021
gouvern	-11.2033
▁raisonnable	-11.2037
▁encouraging	-11.2038
▁gradient	-11.2042
▁spectrum	-11.2054
▁parfaitement	-11.207
▁communiquer	-11.2076
▁charbon	-11.2085
▁Chapter	-11.2087
▁pharmaceutique	-11.2091
▁provenance	-11.2094
▁phosphor	-11.2101
▁collabora	-11.2104
Iraq	-11.2117
sponsor	-11.2119
▁adhesive	-11.2126
▁availability	-11.2126
▁reliable	-11.2128
sixième	-11.2131
▁auxiliaire	-11.2133
▁Réunion	-11.2134
▁immuno	-11.2137
▁préparatoire	-11.2143
▁refroidi	-11.2148
▁démontre	-11.2154
insuffisance	-11.2157
▁turbo	-11.2164
▁Similarly	-11.2173
▁programming	-11.2177
▁réfléchi	-11.2191
▁Palestine	-11.2192
Euro	-11.2194
▁pharmaceutical	-11.2198
▁elected	-11.22
▁convaincu	-11.2205
▁Concern	-11.221
▁convertisseur	-11.2215
▁1983	-11.223
▁Cyprus	-11.2233
▁twenty	-11.2235
ammonium	-11.2235
▁relevé	-11.2238
▁Roumanie	-11.2242
▁Middle	-11.2244
▁Bulgaria	-11.2247
▁goutte	-11.2249
▁raccordement	-11.2253
▁generating	-11.2258
▁Moyen	-11.228
▁broadcast	-11.2285
▁residence	-11.229
implantation	-11.229
▁causing	-11.2299
▁mounting	-11.2299
▁built	-11.2302
▁dedicated	-11.2305
▁carriage	-11.2313
▁resistor	-11.232
▁génétique	-11.2326
▁anchor	-11.233
▁rotate	-11.2331
▁Control	-11.2334
▁entrepreneurs	-11.2336
▁Australia	-11.2347
▁square	-11.2349
aimant	-11.2353
▁administré	-11.2358
▁Norvège	-11.2367
▁purchase	-11.237
▁poussée	-11.237
▁reaffirm	-11.2377
scope	-11.2378
ù	-11.238
▁periphery	-11.2381
operation	-11.2387
▁serrage	-11.2398
▁empêche	-11.24
▁Système	-11.2401
intéresse	-11.2407
▁séjour	-11.2408
▁lithium	-11.2415
occurrence	-11.242
▁British	-11.2421
chemical	-11.2421
▁Western	-11.2427
▁robust	-11.243
▁Network	-11.2435
▁Question	-11.2436
▁nothing	-11.2436
approbation	-11.2437
▁middle	-11.2441
▁moléculaire	-11.2444
▁rotary	-11.2444
▁theoretical	-11.2451
▁mineral	-11.2464
▁nettement	-11.2466
▁députés	-11.2469
▁colleague	-11.2471
élection	-11.2472
▁Bull	-11.2475
▁patte	-11.2491
direct	-11.2491
affectation	-11.2502
envisager	-11.2522
▁plenary	-11.2528
▁Rules	-11.2548
▁customer	-11.2551
▁contrôlée	-11.2555
▁Kenya	-11.2555
▁tunnel	-11.2557
▁démontré	-11.2561
▁typically	-11.2566
▁milk	-11.2579
▁zinc	-11.2586
▁nappe	-11.2595
▁lumineux	-11.2597
▁English	-11.2603
▁distillation	-11.2603
▁stabilisation	-11.2608
▁décennie	-11.2627
▁requiring	-11.2628
▁détecté	-11.263
▁earth	-11.2631
▁exécuté	-11.2636
▁birth	-11.2636
▁titulaire	-11.2645
▁vinyl	-11.2651
▁Loi	-11.2652
▁calendrier	-11.2663
▁caractérise	-11.2663
▁supprimer	-11.2667
inconvénient	-11.2689
▁lumineuse	-11.2691
accéder	-11.2696
▁renewable	-11.2712
▁packet	-11.2712
▁ambient	-11.2712
▁Despite	-11.2713
▁compartiment	-11.2717
▁white	-11.2728
ifférenc	-11.273
▁compagnie	-11.2745
▁Procedure	-11.2753
▁condensateur	-11.2755
▁résumé	-11.2756
cellulose	-11.2756
▁Caribbean	-11.2758
▁nourri	-11.2762
▁délivre	-11.2764
▁naissance	-11.2766
▁périphérie	-11.2767
▁conviction	-11.2767
Ivoire	-11.2768
▁susmentionné	-11.2769
▁copolymère	-11.2782
▁reservation	-11.2793
▁watch	-11.2803
▁affairs	-11.2811
anticorps	-11.2816
▁plug	-11.2819
▁ferroviaire	-11.282
▁Même	-11.282
▁1982	-11.2822
▁thrust	-11.2827
▁causé	-11.2836
▁kilo	-11.2842
apparition	-11.2843
▁hazard	-11.2846
▁genuine	-11.2856
▁WTO	-11.2856
▁rotating	-11.2863
▁Outre	-11.2863
sorption	-11.2871
▁miroir	-11.2871
▁procède	-11.2873
0.0	-11.2879
▁flèche	-11.2884
▁sulfur	-11.2889
arrivée	-11.289
▁Region	-11.2892
Article	-11.2895
▁encouragé	-11.2895
▁italien	-11.2898
▁mérite	-11.2914
▁intégrant	-11.2916
▁guiding	-11.292
▁annul	-11.2936
▁laboratoire	-11.2939
▁conscient	-11.2939
▁consolidate	-11.2941
▁Several	-11.2941
▁renvoi	-11.2945
▁articulé	-11.295
▁Science	-11.2958
▁Côte	-11.2962
▁welfare	-11.2964
▁whilst	-11.2973
▁brake	-11.2975
▁viennent	-11.2979
▁easier	-11.2981
accélérer	-11.2985
▁hétéro	-11.2987
▁Partnership	-11.2992
▁restructuration	-11.2992
▁bull	-11.2998
▁thousand	-11.3009
▁felt	-11.3015
▁additive	-11.3019
▁tackle	-11.3025
▁rythme	-11.3029
▁Data	-11.3041
▁directrices	-11.3046
▁Hungary	-11.3069
▁Chamber	-11.3069
▁ménagé	-11.3075
▁remise	-11.3086
▁cluster	-11.3092
▁1981	-11.3098
from	-11.3108
▁television	-11.3135
▁générer	-11.3136
▁semiconductor	-11.3146
▁Pendant	-11.3148
▁Mexico	-11.315
▁néglige	-11.3154
▁Bosnia	-11.3154
▁attachment	-11.3156
▁Journal	-11.3164
▁Countries	-11.3167
including	-11.3168
▁voulons	-11.3171
▁Switzerland	-11.3175
▁facilité	-11.3175
▁insufficient	-11.3175
▁Sustainable	-11.3179
additif	-11.3182
▁comparé	-11.3189
▁perhaps	-11.3199
président	-11.3201
▁bath	-11.3203
européen	-11.3209
▁Ensuite	-11.3218
▁reinforcing	-11.3236
▁phrase	-11.3247
▁equation	-11.3258
▁déterminant	-11.3265
▁prélèvement	-11.3267
▁préserver	-11.3267
▁speech	-11.3269
▁worth	-11.3273
▁spéciaux	-11.3277
▁auxiliary	-11.3279
▁homogène	-11.3285
nufactur	-11.3286
▁cyto	-11.3287
enfance	-11.329
▁instamment	-11.3291
▁Chypre	-11.3304
▁légitime	-11.3312
▁autorise	-11.3318
espoir	-11.3319
▁préjudice	-11.332
▁illégale	-11.3334
▁remplissage	-11.3334
▁oligo	-11.3346
▁consommateur	-11.3362
▁restructuring	-11.3366
▁Crime	-11.3368
▁Premier	-11.3374
▁analysé	-11.3378
▁Amendment	-11.3382
▁summary	-11.3386
▁enhancing	-11.3388
▁dépit	-11.3392
▁Implementation	-11.3396
▁century	-11.3396
www	-11.3398
▁narrow	-11.34
septième	-11.3402
▁possibilities	-11.3409
▁zéro	-11.3412
▁distributeur	-11.3417
▁Caraïbes	-11.3419
▁mould	-11.3426
▁Agenda	-11.3429
▁vitro	-11.3438
▁recrutement	-11.3439
▁fuite	-11.3449
▁accompagné	-11.3455
Angola	-11.3457
▁thématique	-11.3459
▁découpe	-11.3466
▁rémunération	-11.3475
▁transversal	-11.3476
amplification	-11.3481
▁Jordan	-11.3489
▁sulfate	-11.349
▁Hongrie	-11.3493
▁Finance	-11.35
▁write	-11.3501
burg	-11.3514
▁sharing	-11.3514
▁preserve	-11.3528
▁Croatia	-11.3548
▁Investment	-11.355
▁maîtrise	-11.3556
▁elastomer	-11.356
▁essay	-11.356
▁décalage	-11.3562
▁orientale	-11.3566
▁découvert	-11.3568
Autorité	-11.3568
▁analyze	-11.3582
▁assemblé	-11.3582
▁printed	-11.3582
entrave	-11.3583
Commissariat	-11.3584
▁teeth	-11.3584
▁réparation	-11.3597
émulsion	-11.3599
▁interview	-11.36
▁distribué	-11.3608
acétate	-11.3609
▁Political	-11.3619
couche	-11.3622
▁qualitative	-11.3625
discrimination	-11.3632
▁Agriculture	-11.3639
▁chariot	-11.3643
▁distinguish	-11.3651
UNESCO	-11.3659
▁sheath	-11.3659
▁appreciation	-11.3661
$	-11.3663
▁compensate	-11.3667
▁Method	-11.3672
▁indépendamment	-11.3678
▁dissemination	-11.368
▁cosmetic	-11.3684
▁Great	-11.369
▁prononcé	-11.3694
▁satisfaire	-11.3696
▁smooth	-11.37
▁accompanied	-11.3706
▁soulevé	-11.3717
▁aforementioned	-11.3727
▁sépare	-11.373
▁incliné	-11.3731
@	-11.3733
▁supplier	-11.3733
aménagement	-11.3735
▁behavior	-11.3735
▁clapet	-11.3735
▁multiplie	-11.3736
▁Application	-11.3748
▁universitaire	-11.376
▁Bosnie	-11.3764
▁féminin	-11.3766
▁diminué	-11.3776
▁occupied	-11.3783
événement	-11.3793
extension	-11.38
▁stimulation	-11.3812
▁cosmétique	-11.3826
▁witness	-11.383
▁sampling	-11.3837
▁Police	-11.3845
oxydation	-11.3849
▁bilatéral	-11.3851
▁développe	-11.3851
‐	-11.388
▁sustainability	-11.388
▁Source	-11.3887
▁agriculteurs	-11.3895
▁annoncé	-11.391
▁elimination	-11.3914
▁Bangladesh	-11.3916
▁hundred	-11.3916
▁islamique	-11.3916
époque	-11.3923
méditerranéen	-11.3928
−	-11.4455
“	-11.4745
–	-11.5044
φ	-11.5081
#	-11.5083
ë	-11.5254
±	-11.5553
¡	-11.57
^	-11.6354
[	-11.6596
δ	-11.7551
È	-11.8223
≥	-11.8678
•	-11.9031
}	-11.9611
{	-11.9655
Γ	-11.9767
ñ	-11.9771
‘	-12.0229
μ	-12.0639
\	-12.0905
ć	-12.1433
≤	-12.1504
ã	-12.1841
§	-12.1924
□	-12.1995
&	-12.2567
Ç	-12.3059
Π	-12.3117
π	-12.3437
σ	-12.3459
Ω	-12.3797
Î	-12.4222
š	-12.4352
฀	-12.4508
č	-12.4666
Ø	-12.4758
ú	-12.4883
Ö	-12.4889
£	-12.5286
ø	-12.5306
Φ	-12.5517
→	-12.5632
Å	-12.5913
Á	-12.5996
Š	-12.6875
►	-12.778
~	-12.7797
⁄	-12.8208
♫	-12.8728
ι	-12.8756
Ê	-12.9685
≦	-13.0608
Í	-13.1466
ˆ	-13.2634
♦	-13.2771
©	-13.3238
ß	-13.3325
―	-13.3561
ʹ	-13.3788
¿	-13.3895
å	-13.4867
ψ	-13.5231
Ü	-13.5794
═	-13.604
ò	-13.6214
æ	-13.641
À	-13.6754
Č	-13.6774
ž	-13.6795
Θ	-13.6878
Œ	-13.7347
Ó	-13.7815
Ô	-13.8
ş	-13.8141
▪	-13.8188
∘	-13.838
●	-13.855
„	-13.8575
∗	-13.86
√	-13.86
Ï	-13.8624
Â	-13.8724
Ä	-13.8774
̋	-13.9614
й	-13.9696
|	-13.9779
ı	-13.9779
¤	-14.0147
Ž	-14.0381
♪	-14.056
≧	-14.056
∈	-14.1148
ł	-14.118
‟	-14.1341
‰	-14.1341
Ψ	-14.1639
Õ	-14.1672
ì	-14.2014
ā	-14.2189
ý	-14.2332
〉	-14.255
̈	-14.2587
〈	-14.2773
ń	-14.2886
≠	-14.2924
Æ	-14.3273
∞	-14.3312
ř	-14.3472
≈	-14.3634
‚	-14.3967
̂	-14.4267
ě	-14.4487
Ί	-14.4713
≡	-14.4758
̃	-14.4804
Ñ	-14.4804
ė	-14.4897
ð	-14.5084
Ł	-14.5568
ă	-14.5922
õ	-14.5973
∥	-14.6025
↑	-14.6182
ί	-14.6396
¦	-14.645
‒	-14.645
ğ	-14.678
Ì	-14.6837
○	-14.6893
̸	-14.7064
▼	-14.7357
ŕ	-14.7537
ا	-14.7537
†	-14.8096
◆	-14.8355
ę	-14.8487
∼	-14.8824
¥	-14.9103
¬	-14.9103
➢	-14.9318
⊕	-14.939
ل	-14.939
¢	-14.9913
ī	-14.9989
Ë	-15.0145
ő	-15.0145
∂	-15.0224
Ş	-15.0627
Û	-15.0962
‡	-15.1851
≅	-15.1851
ň	-15.2039
➾	-15.2134
↓	-15.2426
Ú	-15.2426
∆	-15.2525
◊	-15.3035
≃	-15.314
ţ	-15.3573
ū	-15.3573
ς	-15.3684
م	-15.3796
Ð	-15.4025
↔	-15.4025
ي	-15.4025
Έ	-15.4141
Ό	-15.4378
─	-15.4378
⌀	-15.462
ś	-15.4995
¶	-15.5518
ů	-15.5653
‹	-15.5653
ą	-15.607
◄	-15.6213
ņ	-15.6358
и	-15.6505
✔	-15.6505
葵	-15.6505
و	-15.6654
ΐ	-15.6806
›	-15.6959
Ś	-15.7274
ر	-15.7274
∅	-15.7436
İ	-15.76
⌆	-15.76
⊥	-15.7766
∑	-15.7936
⊖	-15.8108
ľ	-15.8284
ή	-15.8284
ē	-15.8462
đ	-15.8644
̧	-15.8829
ŝ	-15.9018
̅	-15.9018
̌	-15.9018
ن	-15.9018
ό	-15.921
ō	-15.9406
έ	-15.9406
∝	-15.9606
̊	-15.981
Ć	-15.981
̇	-15.981
י	-15.981
ά	-16.0019
▲	-16.0019
Þ	-16.0232
∀	-16.0232
△	-16.0232
ĥ	-16.0449
ʺ	-16.0449
∫	-16.0449
≏	-16.0449
Ά	-16.0671
⇒	-16.0671
❚	-16.0671
÷	-16.1131
Ţ	-16.1131
ș	-16.1131
➧	-16.1131
Ý	-16.1369
Ŝ	-16.1613
Ù	-16.1613
ż	-16.1613
Đ	-16.1613
ع	-16.1863
ű	-16.2119
⌯	-16.2119
л	-16.2383
ه	-16.2653
◦	-16.2653
Ò	-16.3216
̄	-16.3216
Ņ	-16.3216
ب	-16.3216
Ř	-16.351
ت	-16.351
د	-16.351
←	-16.351
س	-16.3813
∇	-16.3813
❖	-16.3813
ح	-16.3813
⦵	-16.4126
Ÿ	-16.4449
⋅	-16.4449
✓	-16.4449
Ő	-16.4782
д	-16.5127
ж	-16.5127
ˇ	-16.5484
ق	-16.5484
ź	-16.5854
ة	-16.5854
ك	-16.5854
∙	-16.5854
◯	-16.5854
Ā	-16.6239
Ĉ	-16.6239
ε	-16.6239
ύ	-16.6239
ʻ	-16.6639
ف	-16.6639
Ė	-16.7055
Ċ	-16.7055
Ń	-16.7055
Ή	-16.7055
ώ	-16.749
⊗	-16.749
└	-16.749
ĕ	-16.749
ϋ	-16.7945
┌	-16.8421
・	-16.8421
Ĥ	-16.8421
Ī	-16.8421
Ŷ	-16.8421
ÿ	-16.8921
з	-16.8921
ǿ	-16.9447
┘	-16.9447
Ĩ	-16.9447
б	-16.9447
ķ	-16.9447
ŷ	-17.0003
˗	-17.0003
ϊ	-17.0003
ج	-17.0003
➔	-17.0003
Ă	-17.0591
ص	-17.1216
ط	-17.1216
⇄	-17.1216
◇	-17.1216
⇔	-17.1883
┐	-17.1883
ų	-17.1883
ʿ	-17.1883
П	-17.1883
Ē	-17.1883
ĉ	-17.2597
ĝ	-17.2597
Ż	-17.2597
Ф	-17.2597
愀	-17.2597
Ə	-17.2597
⊙	-17.2597
ы	-17.3366
я	-17.42
Ύ	-17.42
א	-17.42
ḥ	-17.42
Ĵ	-17.42
̵	-17.42
Б	-17.42
➥	-17.42
⩭	-17.42
ド	-17.42
愒	-17.42
Ĝ	-17.42
ď	-17.5109
ъ	-17.5109
␣	-17.5109
ش	-17.5109
⇌	-17.5109
‪	-17.6109
Ť	-17.6109
п	-17.6109
ڤ	-17.6109
ẏ	-17.6109
‖	-17.6109
∉	-17.6109
⊝	-17.6109
Ķ	-17.6109
ə	-17.6109
إ	-17.6109
ф	-17.6109
∪	-17.722
ΰ	-17.722
أ	-17.722
★	-17.722
ħ	-17.722
ɛ	-17.722
ч	-17.722
ẑ	-17.722
▴	-17.722
ɔ	-17.722
≻	-17.722
〗	-17.847
ļ	-17.847
ģ	-17.847
ǎ	-17.847
〖	-17.847
þ	-17.847
Ũ	-17.847
ǀ	-17.847
Ώ	-17.847
Д	-17.847
ḫ	-17.847
ỹ	-17.847
₤	-17.847
↵	-17.847
∎	-17.847
▷	-17.847
❑	-17.847
❱	-17.847
扉	-17.847
道	-17.847
駸	-17.847
中	-17.847
̲	-17.847
Й	-17.9898
≺	-17.9898
馮	-17.9898
ŋ	-17.9898
Ŵ	-17.9898
Ǻ	-17.9898
ɣ	-17.9898
ˉ	-17.9898
خ	-17.9898
Ⴑ	-17.9898
Ẋ	-17.9898
↪	-17.9898
∩	-17.9898
≫	-17.9898
⋄	-17.9898
ǧ	-17.9898
国	-18.1565
エ	-18.1565
Ľ	-18.1565
Ƒ	-18.1565
ḍ	-18.1565
ṣ	-18.1565
小	-18.1565
Ğ	-18.1565
Ŕ	-18.1565
ŵ	-18.1565
ʾ	-18.1565
Є	-18.1565
غ	-18.1565
ٱ	-18.1565
‬	-18.1565
∃	-18.1565
∏	-18.1565
∓	-18.1565
テ	-18.1565
ベ	-18.1565
丸	-18.1565
駻	-18.1565
⎕	-18.1565
ǝ	-18.1565
ذ	-18.1565
ț	-18.3565
Ę	-18.3565
Ō	-18.3565
ŏ	-18.3565
Ɣ	-18.3565
ǔ	-18.3565
̆	-18.3565
Ϊ	-18.3565
ц	-18.3565
פ	-18.3565
ز	-18.3565
ض	-18.3565
ظ	-18.3565
ى	-18.3565
ặ	-18.3565
ẽ	-18.3565
∮	-18.3565
≪	-18.3565
⊂	-18.3565
⌦	-18.3565
⌫	-18.3565
挨	-18.3565
不	-18.3565
海	-18.3565
Г	-18.6065
劉	-18.6065
好	-18.6065
˩	-18.6065
▾	-18.6065
♂	-18.6065
❂	-18.6065
ĩ	-18.6065
Ň	-18.6065
ũ	-18.6065
ǂ	-18.6065
И	-18.6065
ա	-18.6065
ի	-18.6065
ն	-18.6065
ח	-18.6065
ṭ	-18.6065
Ẍ	-18.6065
Ẑ	-18.6065
ộ	-18.6065
⇆	-18.6065
⇾	-18.6065
⊃	-18.6065
⎯	-18.6065
◻	-18.6065
♀	-18.6065
♠	-18.6065
マ	-18.6065
モ	-18.6065
ロ	-18.6065
ー	-18.6065
三	-18.6065
丨	-18.6065
人	-18.6065
笠	-18.6065
馥	-18.6065
ƴ	-18.6065
̣	-18.6065
ג	-18.6065
≲	-18.6065
柔	-18.6065
诗	-18.6065
日	-18.6065
郎	-18.6065
զ	-18.6065
バ	-18.6065
理	-18.6065
山	-18.9398
ǫ	-18.9398
ˈ	-18.9398
Ϋ	-18.9398
李	-18.9398
部	-18.9398
ġ	-18.9398
ĺ	-18.9398
Ź	-18.9398
ȧ	-18.9398
ɸ	-18.9398
̨	-18.9398
ш	-18.9398
ו	-18.9398
؟	-18.9398
ẇ	-18.9398
ẋ	-18.9398
Ẏ	-18.9398
▩	-18.9398
♢	-18.9398
✧	-18.9398
义	-18.9398
伊	-18.9398
國	-18.9398
惴	-18.9398
良	-18.9398
駱	-18.9398
Ű	-18.9398
Ą	-18.9398
Ū	-18.9398
ị	-18.9398
兰	-19.4398
姆	-19.4398
詹	-19.4398
ץ	-19.4398
佳	-19.4398
笔	-19.4398
辣	-19.4398
Ů	-19.4398
⟳	-19.4398
仰	-19.4398
十	-19.4398
卷	-19.4398
宮	-19.4398
尼	-19.4398
峰	-19.4398
洪	-19.4398
ǐ	-19.4398
ȇ	-19.4398
̕	-19.4398
̶	-19.4398
∠	-19.4398
┭	-19.4398
❏	-19.4398
➋	-19.4398
醫	-19.4398
馗	-19.4398
騁	-19.4398
Ʃ	-19.4398
Ȉ	-19.4398
ʎ	-19.4398
ʔ	-19.4398
ˮ	-19.4398
̀	-19.4398
Ж	-19.4398
З	-19.4398
բ	-19.4398
ե	-19.4398
կ	-19.4398
չ	-19.4398
ב	-19.4398
ר	-19.4398
،	-19.4398
ء	-19.4398
ؤ	-19.4398
ً	-19.4398
ဪ	-19.4398
ᅠ	-19.4398
ᴂ	-19.4398
Ḥ	-19.4398
ṁ	-19.4398
ṇ	-19.4398
Ṭ	-19.4398
ẓ	-19.4398
ả	-19.4398
ệ	-19.4398
Ỹ	-19.4398
ἥ	-19.4398
ἧ	-19.4398
ὶ	-19.4398
ᾶ	-19.4398
ῦ	-19.4398
ῶ	-19.4398
‛	-19.4398
※	-19.4398
↠	-19.4398
∊	-19.4398
∧	-19.4398
≂	-19.4398
≌	-19.4398
≽	-19.4398
⌈	-19.4398
⍺	-19.4398
⏊	-19.4398
┼	-19.4398
╬	-19.4398
▬	-19.4398
▭	-19.4398
◗	-19.4398
♻	-19.4398
➣	-19.4398
⟨	-19.4398
⟩	-19.4398
⩽	-19.4398
⩾	-19.4398
「	-19.4398
」	-19.4398
で	-19.4398
み	-19.4398
る	-19.4398
ィ	-19.4398
ウ	-19.4398
グ	-19.4398
ス	-19.4398
ソ	-19.4398
タ	-19.4398
ビ	-19.4398
ブ	-19.4398
ラ	-19.4398
ル	-19.4398
レ	-19.4398
举	-19.4398
事	-19.4398
互	-19.4398
五	-19.4398
仕	-19.4398
代	-19.4398
以	-19.4398
信	-19.4398
克	-19.4398
兌	-19.4398
利	-19.4398
勾	-19.4398
化	-19.4398
区	-19.4398
原	-19.4398
可	-19.4398
和	-19.4398
嘉	-19.4398
园	-19.4398
坚	-19.4398
城	-19.4398
培	-19.4398
増	-19.4398
增	-19.4398
奴	-19.4398
容	-19.4398
島	-19.4398
嵇	-19.4398
川	-19.4398
工	-19.4398
年	-19.4398
庆	-19.4398
府	-19.4398
康	-19.4398
張	-19.4398
息	-19.4398
慕	-19.4398
戸	-19.4398
房	-19.4398
措	-19.4398
政	-19.4398
斌	-19.4398
斯	-19.4398
旺	-19.4398
朋	-19.4398
朝	-19.4398
村	-19.4398
松	-19.4398
柴	-19.4398
栄	-19.4398
桦	-19.4398
楚	-19.4398
段	-19.4398
江	-19.4398
治	-19.4398
沿	-19.4398
法	-19.4398
泥	-19.4398
滨	-19.4398
演	-19.4398
牛	-19.4398
特	-19.4398
王	-19.4398
珠	-19.4398
生	-19.4398
発	-19.4398
砍	-19.4398
神	-19.4398
第	-19.4398
籍	-19.4398
納	-19.4398
网	-19.4398
罾	-19.4398
联	-19.4398
苏	-19.4398
草	-19.4398
蒙	-19.4398
西	-19.4398
覚	-19.4398
說	-19.4398
諸	-19.4398
说	-19.4398
诺	-19.4398
賢	-19.4398
赵	-19.4398
輹	-19.4398
込	-19.4398
违	-19.4398
遊	-19.4398
醋	-19.4398
金	-19.4398
鑒	-19.4398
阮	-19.4398
雪	-19.4398
飞	-19.4398
馬	-19.4398
魂	-19.4398
魄	-19.4398
ꞌ	-19.4398
공	-19.4398
근	-19.4398
깃	-19.4398
른	-19.4398
발	-19.4398
범	-19.4398
부	-19.4398
식	-19.4398
앨	-19.4398
질	-19.4398
푸	-19.4398
혜	-19.4398
于	-19.4398
柏	-19.4398
ɑ	-19.4398
ậ	-19.4398
ὡ	-19.4398
卫	-19.4398
朦	-19.4398
東	-19.4398
胧	-19.4398
관	-19.4398
리	-19.4398
박	-19.4398
병	-19.4398
본	-19.4398
լ	-19.4398
վ	-19.4398
ی	-19.4398
ẻ	-19.4398
↦	-19.4398
げ	-19.4398
し	-19.4398
丁	-19.4398
丹	-19.4398
南	-19.4398
无	-19.4398
木	-19.4398
水	-19.4398
的	-19.4398
蔭	-19.4398
講	-19.4398
车	-19.4398
阿	-19.4398
館	-19.4398
头	-19.4399
報	-19.4399
心	-19.4399
情	-19.4399
报	-19.4399
整	-19.4399
之	-20.4397
大	-20.4397
与	-20.4398
世	-20.4398
ȕ	-20.4398
ͧ	-20.4398
书	-20.4398
ס	-20.4398
ċ	-20.4398
Ĕ	-20.4398
į	-20.4398
ŭ	-20.4398
ƞ	-20.4398
ȃ	-20.4398
ȗ	-20.4398
Ȧ	-20.4398
ʃ	-20.4398
Ϙ	-20.4398
ϙ	-20.4398
Ш	-20.4398
ў	-20.4398
ּ	-20.4398
ה	-20.4398
ט	-20.4398
ך	-20.4398
ש	-20.4398
ת	-20.4398
ئ	-20.4398
ၢ	-20.4398
Ꮰ	-20.4398
Ḳ	-20.4398
ṃ	-20.4398
Ṽ	-20.4398
ṽ	-20.4398
Ả	-20.4398
Ẻ	-20.4398
ớ	-20.4398
ứ	-20.4398
ὄ	-20.4398
⁆	-20.4398
⃝	-20.4398
↗	-20.4398
↘	-20.4398
∨	-20.4398
⊲	-20.4398
┴	-20.4398
▒	-20.4398
▧	-20.4398
◣	-20.4398
☆	-20.4398
☉	-20.4398
☐	-20.4398
✦	-20.4398
➎	-20.4398
➤	-20.4398
➨	-20.4398
ゞ	-20.4398
乐	-20.4398
位	-20.4398
你	-20.4398
厭	-20.4398
口	-20.4398
塑	-20.4398
奖	-20.4398
寿	-20.4398
幸	-20.4398
Ế	-20.4398
∋	-20.4398
⌃	-20.4398
ノ	-20.4398
Ħ	-20.4399
ʁ	-20.4399
ʒ	-20.4399
װ	-20.4399
ث	-20.4399
Ὄ	-20.4399
临	-20.4399
刘	-20.4399
即	-20.4399
